#include <Arduino.h>
#include <TensorFlowLite_ESP32.h>
// #include "model.h"

#include "tensorflow/lite/micro/all_ops_resolver.h"
#include "tensorflow/lite/micro/micro_error_reporter.h"
#include "tensorflow/lite/micro/micro_interpreter.h"
#include "tensorflow/lite/micro/system_setup.h"
#include "tensorflow/lite/schema/schema_generated.h"

#include <Arduino.h>

const unsigned char model[] PROGMEM = {
    28, 0, 0, 0, 84, 70, 76, 51, 20, 0, 32, 0, 28, 0, 24, 0, 20, 0, 16, 0, 12, 0, 0, 0, 8, 0, 4, 0, 20, 0, 0, 0, 28, 0, 0, 0, 140, 0, 0, 0, 220, 0, 0, 0, 132, 18, 1, 0, 148, 18, 1, 0, 92, 49, 1, 0, 3, 0, 0, 0, 1, 0, 0, 0, 4, 0, 0, 0, 102, 218, 254, 255, 12, 0, 0, 0, 28, 0, 0, 0, 60, 0, 0, 0, 15, 0, 0, 0, 115, 101, 114, 118, 105, 110, 103, 95, 100, 101, 102, 97, 117, 108, 116, 0, 1, 0, 0, 0, 4, 0, 0, 0, 160, 219, 254, 255, 31, 0, 0, 0, 4, 0, 0, 0, 8, 0, 0, 0, 100, 101, 110, 115, 101, 95, 49, 48, 0, 0, 0, 0, 1, 0, 0, 0, 4, 0, 0, 0, 110, 218, 254, 255, 4, 0, 0, 0, 13, 0, 0, 0, 108, 115, 116, 109, 95, 49, 48, 95, 105, 110, 112, 117, 116, 0, 0, 0, 2, 0, 0, 0, 44, 0, 0, 0, 4, 0, 0, 0, 236, 219, 254, 255, 74, 0, 0, 0, 4, 0, 0, 0, 19, 0, 0, 0, 67, 79, 78, 86, 69, 82, 83, 73, 79, 78, 95, 77, 69, 84, 65, 68, 65, 84, 65, 0, 16, 220, 254, 255, 73, 0, 0, 0, 4, 0, 0, 0, 19, 0, 0, 0, 109, 105, 110, 95, 114, 117, 110, 116, 105, 109, 101, 95, 118, 101, 114, 115, 105, 111, 110, 0, 75, 0, 0, 0, 164, 17, 1, 0, 156, 17, 1, 0, 128, 17, 1, 0, 100, 17, 1, 0, 72, 17, 1, 0, 52, 17, 1, 0, 28, 17, 1, 0, 8, 17, 1, 0, 236, 16, 1, 0, 216, 16, 1, 0, 200, 12, 1, 0, 176, 12, 1, 0, 156, 12, 1, 0, 148, 12, 1, 0, 140, 12, 1, 0, 132, 12, 1, 0, 116, 10, 1, 0, 108, 10, 1, 0, 100, 10, 1, 0, 92, 10, 1, 0, 84, 10, 1, 0, 76, 10, 1, 0, 68, 10, 1, 0, 60, 10, 1, 0, 52, 10, 1, 0, 44, 10, 1, 0, 36, 10, 1, 0, 28, 10, 1, 0, 20, 10, 1, 0, 12, 10, 1, 0, 4, 10, 1, 0, 252, 9, 1, 0, 244, 9, 1, 0, 236, 9, 1, 0, 228, 9, 1, 0, 220, 9, 1, 0, 212, 9, 1, 0, 204, 9, 1, 0, 196, 9, 1, 0, 176, 9, 1, 0, 168, 9, 1, 0, 160, 9, 1, 0, 152, 9, 1, 0, 144, 9, 1, 0, 136, 9, 1, 0, 128, 9, 1, 0, 120, 9, 1, 0, 112, 9, 1, 0, 96, 5, 1, 0, 88, 5, 1, 0, 72, 5, 0, 0, 56, 1, 0, 0, 48, 1, 0, 0, 40, 1, 0, 0, 32, 1, 0, 0, 24, 1, 0, 0, 16, 1, 0, 0, 8, 1, 0, 0, 0, 1, 0, 0, 248, 0, 0, 0, 240, 0, 0, 0, 232, 0, 0, 0, 224, 0, 0, 0, 216, 0, 0, 0, 208, 0, 0, 0, 200, 0, 0, 0, 192, 0, 0, 0, 184, 0, 0, 0, 176, 0, 0, 0, 168, 0, 0, 0, 160, 0, 0, 0, 152, 0, 0, 0, 144, 0, 0, 0, 112, 0, 0, 0, 4, 0, 0, 0, 14, 220, 254, 255, 4, 0, 0, 0, 92, 0, 0, 0, 12, 0, 0, 0, 8, 0, 14, 0, 8, 0, 4, 0, 8, 0, 0, 0, 20, 0, 0, 0, 44, 0, 0, 0, 0, 0, 10, 0, 12, 0, 8, 0, 0, 0, 7, 0, 10, 0, 0, 0, 0, 0, 0, 1, 4, 0, 0, 0, 0, 0, 0, 0, 0, 0, 10, 0, 16, 0, 12, 0, 8, 0, 4, 0, 10, 0, 0, 0, 2, 0, 0, 0, 2, 0, 0, 0, 4, 0, 0, 0, 6, 0, 0, 0, 50, 46, 49, 50, 46, 48, 0, 0, 118, 220, 254, 255, 4, 0, 0, 0, 16, 0, 0, 0, 49, 46, 49, 53, 46, 48, 0, 0, 0, 0, 0, 0, 0, 0, 0, 0, 116, 208, 254, 255, 120, 208, 254, 255, 124, 208, 254, 255, 128, 208, 254, 255, 132, 208, 254, 255, 136, 208, 254, 255, 140, 208, 254, 255, 144, 208, 254, 255, 148, 208, 254, 255, 152, 208, 254, 255, 156, 208, 254, 255, 160, 208, 254, 255, 164, 208, 254, 255, 168, 208, 254, 255, 172, 208, 254, 255, 176, 208, 254, 255, 180, 208, 254, 255, 184, 208, 254, 255, 188, 208, 254, 255, 192, 208, 254, 255, 196, 208, 254, 255, 230, 220, 254, 255, 4, 0, 0, 0, 0, 4, 0, 0, 223, 180, 63, 190, 166, 90, 163, 62, 235, 180, 118, 190, 232, 92, 161, 61, 219, 73, 64, 189, 136, 215, 213, 60, 236, 79, 184, 60, 141, 215, 123, 190, 126, 156, 8, 63, 233, 178, 199, 189, 205, 192, 255, 61, 173, 104, 9, 61, 88, 210, 158, 61, 198, 75, 164, 61, 178, 120, 135, 61, 158, 95, 210, 60, 208, 81, 47, 62, 31, 197, 182, 61, 133, 38, 36, 189, 136, 55, 2, 61, 144, 184, 16, 62, 56, 1, 60, 190, 218, 127, 165, 188, 138, 140, 32, 62, 73, 147, 201, 62, 125, 84, 59, 62, 208, 223, 185, 189, 46, 134, 52, 190, 113, 164, 112, 190, 13, 70, 29, 190, 128, 181, 156, 62, 200, 45, 105, 61, 138, 7, 0, 62, 220, 188, 7, 61, 186, 7, 3, 191, 111, 226, 129, 189, 119, 73, 27, 189, 88, 115, 165, 60, 203, 126, 63, 189, 82, 83, 228, 61, 144, 233, 26, 61, 70, 137, 88, 189, 236, 113, 149, 189, 238, 72, 89, 62, 114, 140, 97, 188, 252, 0, 7, 61, 84, 23, 89, 190, 192, 16, 81, 190, 191, 69, 15, 61, 207, 126, 227, 62, 224, 183, 230, 60, 88, 88, 31, 190, 7, 142, 40, 190, 103, 120, 52, 62, 52, 168, 203, 189, 206, 208, 56, 190, 79, 174, 162, 188, 149, 235, 156, 61, 36, 82, 41, 61, 66, 32, 1, 189, 32, 45, 64, 189, 8, 88, 1, 62, 64, 19, 231, 188, 190, 28, 82, 62, 87, 241, 17, 189, 158, 147, 0, 62, 123, 48, 222, 60, 97, 183, 69, 189, 113, 116, 86, 191, 240, 39, 50, 190, 69, 146, 128, 61, 140, 123, 75, 189, 185, 44, 146, 190, 138, 205, 37, 62, 80, 198, 33, 61, 151, 251, 4, 62, 89, 119, 26, 190, 149, 167, 169, 62, 184, 176, 12, 62, 6, 44, 24, 189, 183, 125, 11, 189, 179, 192, 74, 190, 190, 163, 147, 188, 5, 149, 161, 189, 160, 121, 88, 61, 55, 108, 51, 189, 173, 23, 9, 60, 121, 218, 178, 62, 123, 246, 31, 63, 159, 91, 4, 189, 115, 150, 4, 62, 227, 155, 10, 189, 78, 81, 156, 62, 239, 42, 209, 60, 150, 242, 220, 61, 240, 37, 144, 62, 191, 59, 226, 60, 244, 93, 25, 62, 115, 199, 16, 61, 184, 215, 219, 189, 135, 139, 239, 62, 208, 233, 11, 61, 3, 198, 192, 188, 215, 207, 26, 63, 130, 63, 188, 189, 82, 213, 24, 189, 120, 41, 28, 189, 221, 29, 19, 190, 46, 126, 180, 188, 12, 187, 14, 189, 4, 79, 105, 62, 49, 134, 64, 190, 112, 164, 226, 61, 92, 211, 255, 60, 253, 14, 2, 62, 114, 9, 131, 61, 169, 185, 112, 190, 56, 119, 162, 62, 183, 33, 184, 190, 178, 5, 79, 62, 116, 18, 217, 62, 130, 157, 248, 188, 81, 168, 48, 190, 199, 125, 91, 60, 239, 214, 233, 188, 204, 46, 161, 62, 9, 220, 135, 62, 5, 193, 31, 62, 157, 94, 254, 60, 137, 195, 36, 191, 128, 246, 158, 62, 143, 67, 157, 190, 174, 115, 211, 60, 88, 140, 133, 189, 66, 20, 212, 189, 129, 164, 228, 62, 217, 21, 123, 189, 20, 238, 14, 63, 179, 122, 40, 189, 61, 164, 128, 189, 91, 57, 142, 189, 117, 139, 25, 63, 241, 250, 59, 191, 28, 32, 74, 60, 24, 167, 119, 61, 249, 179, 1, 189, 1, 82, 58, 62, 10, 18, 157, 189, 85, 239, 113, 190, 244, 180, 156, 188, 15, 157, 76, 190, 181, 241, 236, 190, 112, 165, 86, 191, 253, 42, 49, 62, 101, 90, 32, 191, 33, 115, 113, 189, 57, 137, 174, 189, 16, 74, 162, 189, 219, 30, 218, 190, 106, 229, 17, 191, 222, 207, 188, 61, 157, 11, 60, 188, 237, 176, 237, 189, 242, 86, 131, 62, 152, 103, 35, 191, 155, 111, 169, 61, 36, 112, 213, 62, 230, 175, 67, 63, 229, 188, 127, 190, 11, 38, 145, 190, 174, 24, 4, 61, 94, 55, 161, 190, 251, 70, 8, 190, 218, 170, 203, 62, 130, 179, 254, 62, 11, 192, 108, 189, 111, 140, 8, 189, 205, 73, 168, 188, 241, 55, 147, 189, 219, 165, 92, 189, 159, 130, 131, 61, 94, 36, 158, 190, 63, 238, 94, 190, 236, 19, 46, 63, 204, 28, 126, 191, 43, 207, 6, 63, 75, 142, 31, 191, 144, 221, 160, 190, 102, 159, 62, 62, 78, 87, 57, 190, 18, 196, 24, 62, 130, 78, 108, 62, 246, 59, 130, 61, 26, 206, 125, 190, 57, 139, 80, 61, 247, 48, 128, 189, 224, 87, 16, 189, 3, 163, 180, 61, 58, 234, 138, 62, 2, 214, 210, 62, 129, 194, 44, 189, 109, 3, 251, 190, 188, 210, 129, 189, 88, 96, 16, 62, 112, 191, 135, 61, 158, 75, 111, 190, 146, 248, 74, 190, 174, 204, 247, 62, 71, 158, 144, 61, 159, 221, 95, 62, 229, 220, 117, 62, 39, 10, 111, 62, 79, 203, 161, 189, 193, 43, 47, 62, 244, 145, 207, 62, 216, 122, 65, 190, 1, 209, 84, 190, 25, 121, 117, 189, 177, 185, 219, 190, 16, 17, 205, 60, 0, 228, 18, 62, 195, 187, 248, 61, 227, 75, 128, 190, 108, 63, 133, 190, 43, 186, 33, 62, 228, 104, 185, 189, 52, 133, 189, 190, 187, 183, 178, 62, 255, 120, 211, 61, 127, 143, 7, 63, 177, 91, 23, 62, 126, 46, 47, 62, 151, 254, 96, 190, 232, 96, 38, 63, 169, 193, 78, 190, 23, 52, 79, 190, 4, 90, 40, 62, 176, 99, 134, 190, 229, 19, 151, 190, 220, 107, 177, 188, 30, 181, 157, 61, 181, 119, 32, 190, 61, 188, 157, 61, 236, 111, 82, 62, 254, 3, 212, 189, 99, 164, 99, 190, 116, 165, 56, 189, 122, 252, 237, 190, 194, 26, 141, 62, 182, 139, 134, 190, 131, 144, 250, 189, 77, 228, 219, 62, 176, 204, 152, 188, 148, 130, 81, 190, 23, 167, 227, 61, 177, 227, 52, 190, 242, 224, 254, 255, 4, 0, 0, 0, 0, 0, 1, 0, 46, 241, 234, 189, 186, 19, 56, 190, 120, 184, 13, 63, 158, 150, 54, 190, 87, 206, 186, 62, 221, 92, 211, 189, 182, 163, 18, 190, 242, 111, 145, 62, 78, 16, 133, 61, 241, 176, 168, 62, 50, 35, 38, 190, 189, 120, 100, 60, 123, 113, 76, 189, 11, 173, 139, 61, 121, 218, 116, 190, 206, 95, 120, 189, 203, 163, 117, 189, 217, 160, 64, 190, 83, 86, 221, 62, 229, 3, 56, 190, 87, 228, 85, 190, 50, 29, 191, 61, 71, 44, 172, 62, 173, 93, 182, 189, 112, 248, 59, 190, 99, 75, 31, 62, 120, 85, 171, 190, 195, 40, 72, 190, 219, 67, 168, 61, 162, 111, 44, 61, 155, 156, 87, 190, 101, 121, 251, 189, 31, 118, 134, 60, 3, 37, 215, 190, 133, 242, 185, 189, 98, 250, 98, 62, 125, 123, 13, 191, 131, 221, 35, 61, 7, 8, 29, 62, 78, 1, 113, 189, 128, 155, 24, 59, 166, 154, 238, 190, 107, 37, 201, 61, 230, 12, 164, 189, 196, 194, 21, 61, 4, 132, 120, 61, 255, 141, 132, 62, 77, 141, 140, 190, 133, 217, 122, 60, 220, 156, 132, 61, 108, 247, 85, 60, 91, 137, 30, 62, 73, 36, 96, 62, 214, 237, 179, 60, 27, 56, 13, 191, 163, 155, 151, 62, 150, 4, 48, 191, 156, 68, 161, 62, 97, 167, 147, 189, 91, 108, 34, 61, 177, 214, 90, 62, 123, 89, 226, 189, 108, 250, 186, 62, 19, 191, 160, 62, 84, 154, 116, 190, 179, 159, 189, 60, 76, 185, 103, 190, 48, 94, 109, 191, 25, 143, 29, 189, 15, 18, 75, 190, 206, 242, 130, 190, 86, 242, 27, 187, 255, 59, 189, 61, 104, 100, 117, 190, 217, 209, 200, 189, 80, 187, 131, 189, 77, 240, 25, 190, 114, 120, 148, 61, 28, 90, 90, 61, 105, 136, 21, 61, 112, 20, 44, 62, 114, 78, 254, 61, 133, 145, 26, 63, 224, 217, 140, 190, 27, 32, 145, 191, 29, 61, 63, 62, 34, 122, 49, 61, 108, 139, 54, 62, 212, 176, 125, 189, 246, 246, 45, 63, 218, 226, 151, 62, 235, 32, 190, 190, 181, 236, 10, 62, 94, 32, 135, 62, 113, 62, 42, 60, 106, 87, 124, 188, 173, 144, 39, 62, 113, 123, 236, 188, 187, 186, 13, 190, 43, 61, 129, 62, 193, 209, 228, 190, 124, 33, 29, 189, 120, 106, 46, 62, 82, 84, 80, 60, 125, 233, 174, 189, 202, 194, 62, 191, 204, 195, 61, 189, 130, 15, 175, 190, 27, 15, 202, 61, 35, 204, 20, 62, 221, 97, 4, 190, 89, 95, 26, 62, 215, 166, 73, 189, 248, 37, 255, 61, 156, 99, 23, 189, 0, 212, 30, 62, 121, 84, 188, 188, 70, 115, 92, 62, 145, 131, 255, 189, 220, 209, 163, 190, 59, 118, 3, 191, 200, 206, 254, 189, 188, 84, 97, 190, 146, 69, 139, 190, 68, 94, 240, 60, 112, 128, 135, 189, 188, 105, 154, 62, 188, 6, 3, 63, 168, 63, 168, 190, 143, 102, 156, 189, 88, 112, 139, 61, 111, 195, 71, 62, 214, 231, 112, 190, 229, 78, 138, 190, 16, 182, 195, 58, 124, 215, 189, 61, 84, 220, 128, 62, 194, 251, 53, 191, 3, 188, 248, 189, 59, 26, 219, 62, 71, 53, 133, 190, 203, 90, 135, 188, 156, 215, 129, 61, 90, 197, 215, 61, 218, 139, 130, 62, 18, 120, 215, 189, 9, 219, 134, 190, 173, 163, 83, 190, 21, 67, 83, 62, 50, 6, 108, 62, 6, 121, 226, 62, 188, 32, 196, 60, 33, 114, 83, 189, 7, 20, 41, 190, 247, 98, 54, 63, 193, 81, 156, 62, 102, 198, 148, 62, 204, 176, 167, 62, 90, 167, 115, 189, 224, 169, 188, 61, 147, 192, 216, 62, 179, 69, 216, 60, 53, 201, 133, 62, 68, 41, 67, 190, 195, 88, 254, 62, 80, 138, 160, 62, 133, 253, 76, 191, 59, 102, 76, 62, 134, 129, 106, 61, 168, 144, 162, 62, 58, 149, 32, 60, 222, 59, 8, 62, 146, 226, 123, 62, 148, 140, 21, 61, 145, 88, 254, 190, 51, 220, 142, 189, 35, 141, 111, 190, 107, 210, 121, 190, 124, 85, 25, 190, 28, 103, 161, 62, 243, 143, 76, 190, 237, 16, 195, 188, 98, 21, 223, 61, 161, 37, 25, 191, 43, 206, 3, 63, 58, 188, 172, 60, 183, 50, 249, 189, 37, 124, 32, 63, 243, 119, 232, 190, 125, 189, 240, 61, 231, 18, 65, 191, 76, 120, 30, 61, 3, 81, 183, 190, 241, 208, 142, 189, 222, 81, 220, 60, 93, 132, 145, 190, 105, 131, 162, 61, 234, 155, 22, 191, 196, 127, 58, 191, 11, 252, 96, 61, 136, 97, 58, 63, 60, 239, 202, 61, 123, 241, 219, 190, 198, 3, 10, 62, 158, 223, 250, 190, 233, 211, 238, 61, 63, 124, 10, 60, 8, 227, 171, 190, 246, 78, 236, 62, 255, 63, 192, 189, 175, 172, 252, 61, 155, 165, 121, 60, 62, 242, 170, 190, 120, 195, 90, 62, 249, 111, 23, 190, 176, 207, 44, 190, 84, 25, 46, 62, 67, 180, 234, 61, 244, 145, 156, 189, 55, 67, 206, 62, 161, 44, 94, 62, 198, 58, 101, 62, 153, 117, 116, 190, 24, 215, 48, 60, 49, 54, 101, 63, 224, 114, 61, 62, 80, 41, 223, 189, 142, 91, 57, 190, 210, 45, 43, 62, 147, 147, 248, 62, 26, 169, 115, 189, 126, 10, 2, 63, 234, 178, 0, 189, 201, 122, 154, 190, 93, 239, 139, 62, 247, 160, 29, 61, 232, 20, 29, 190, 13, 40, 240, 61, 144, 255, 153, 62, 117, 73, 137, 190, 172, 90, 57, 191, 61, 95, 9, 189, 142, 28, 29, 191, 25, 234, 112, 62, 191, 226, 19, 189, 45, 125, 202, 61, 163, 214, 55, 61, 50, 191, 143, 190, 217, 45, 66, 62, 33, 191, 154, 61, 75, 42, 249, 187, 138, 21, 214, 61, 213, 116, 131, 62, 242, 138, 240, 61, 88, 171, 224, 188, 232, 137, 60, 62, 149, 168, 48, 190, 225, 27, 49, 190, 47, 183, 103, 190, 237, 211, 152, 188, 188, 36, 132, 190, 30, 89, 98, 190, 75, 140, 190, 189, 157, 16, 154, 61, 251, 82, 152, 61, 243, 135, 167, 190, 229, 154, 2, 189, 100, 238, 80, 62, 149, 128, 2, 190, 115, 80, 99, 62, 154, 134, 223, 189, 186, 160, 92, 62, 228, 226, 186, 62, 134, 137, 40, 189, 141, 212, 164, 190, 210, 161, 131, 62, 204, 29, 191, 189, 221, 102, 115, 190, 22, 119, 79, 62, 105, 212, 129, 190, 54, 40, 220, 189, 205, 202, 224, 61, 149, 111, 93, 62, 153, 199, 111, 61, 195, 115, 136, 189, 0, 106, 159, 62, 167, 125, 127, 190, 203, 146, 2, 190, 186, 95, 138, 62, 201, 36, 184, 189, 57, 6, 150, 61, 17, 199, 9, 60, 6, 156, 175, 62, 32, 103, 44, 62, 89, 234, 39, 190, 237, 35, 200, 188, 195, 215, 162, 190, 131, 159, 242, 62, 207, 11, 247, 189, 37, 60, 94, 189, 79, 209, 191, 189, 226, 114, 26, 62, 209, 72, 70, 190, 210, 225, 46, 62, 115, 66, 165, 190, 59, 102, 138, 61, 200, 108, 22, 190, 36, 69, 119, 62, 208, 11, 160, 190, 233, 11, 17, 190, 130, 162, 83, 62, 250, 118, 217, 190, 101, 44, 152, 62, 233, 234, 139, 62, 42, 35, 103, 186, 47, 186, 32, 190, 120, 197, 9, 190, 87, 75, 151, 190, 36, 65, 64, 191, 196, 111, 122, 62, 76, 159, 170, 60, 158, 239, 66, 62, 229, 69, 5, 191, 110, 107, 230, 189, 139, 176, 67, 59, 251, 207, 149, 189, 113, 42, 46, 190, 90, 77, 11, 190, 210, 11, 240, 60, 62, 88, 7, 191, 83, 205, 180, 189, 6, 194, 112, 58, 83, 49, 166, 189, 62, 137, 229, 188, 45, 126, 137, 62, 217, 172, 11, 190, 10, 105, 88, 189, 197, 147, 160, 187, 4, 76, 251, 61, 230, 98, 212, 188, 217, 138, 73, 60, 197, 87, 36, 62, 130, 1, 10, 62, 171, 29, 90, 190, 147, 184, 41, 62, 37, 0, 36, 62, 183, 176, 30, 63, 24, 18, 145, 61, 7, 52, 40, 63, 229, 210, 9, 63, 158, 217, 145, 189, 185, 208, 213, 61, 42, 245, 137, 188, 172, 175, 23, 61, 36, 228, 29, 62, 150, 118, 34, 189, 147, 23, 86, 190, 203, 205, 166, 190, 168, 190, 84, 189, 233, 145, 84, 62, 26, 80, 128, 190, 251, 214, 245, 188, 142, 61, 231, 188, 119, 197, 35, 61, 228, 159, 247, 188, 192, 2, 187, 187, 178, 13, 180, 190, 106, 234, 66, 62, 43, 15, 101, 61, 72, 217, 92, 60, 151, 159, 30, 190, 123, 128, 55, 63, 246, 68, 222, 190, 212, 8, 83, 59, 196, 90, 171, 62, 230, 212, 96, 191, 9, 12, 191, 189, 106, 172, 133, 189, 113, 137, 4, 190, 248, 72, 22, 190, 111, 172, 168, 189, 22, 138, 215, 61, 174, 220, 135, 62, 197, 179, 59, 62, 124, 43, 24, 191, 255, 176, 39, 191, 195, 93, 78, 61, 206, 134, 160, 190, 58, 107, 40, 191, 137, 66, 175, 190, 174, 169, 66, 189, 77, 155, 246, 62, 254, 60, 245, 62, 99, 150, 43, 61, 33, 216, 4, 191, 63, 229, 20, 62, 67, 44, 253, 190, 13, 142, 23, 63, 198, 197, 20, 191, 25, 63, 0, 62, 218, 65, 185, 62, 52, 25, 97, 190, 87, 240, 115, 189, 112, 38, 168, 62, 50, 181, 166, 190, 213, 120, 247, 190, 10, 202, 150, 62, 25, 79, 36, 191, 33, 59, 245, 190, 59, 15, 211, 61, 224, 127, 15, 61, 41, 223, 193, 62, 204, 62, 222, 62, 201, 216, 151, 62, 247, 112, 37, 191, 60, 238, 5, 191, 16, 95, 38, 63, 40, 136, 101, 190, 64, 102, 132, 62, 94, 110, 202, 62, 176, 171, 136, 62, 250, 66, 32, 63, 43, 57, 23, 191, 7, 105, 241, 62, 242, 244, 7, 191, 36, 190, 174, 62, 17, 91, 3, 191, 125, 231, 195, 190, 97, 233, 198, 61, 141, 4, 26, 63, 76, 3, 177, 189, 147, 193, 1, 63, 207, 70, 248, 190, 188, 48, 94, 62, 160, 219, 1, 191, 114, 169, 127, 62, 107, 62, 28, 191, 222, 37, 5, 191, 53, 142, 2, 63, 72, 146, 130, 61, 58, 61, 211, 62, 202, 93, 27, 63, 48, 136, 239, 190, 22, 111, 64, 63, 208, 120, 234, 190, 225, 179, 8, 191, 113, 25, 29, 191, 10, 65, 89, 62, 141, 252, 158, 190, 24, 235, 26, 190, 74, 190, 67, 190, 155, 179, 85, 191, 123, 168, 76, 63, 66, 57, 198, 190, 201, 1, 9, 190, 142, 11, 17, 63, 55, 149, 87, 62, 178, 95, 119, 61, 151, 135, 137, 190, 85, 230, 167, 62, 167, 143, 217, 190, 129, 43, 59, 62, 93, 201, 0, 189, 31, 84, 206, 58, 90, 100, 67, 62, 188, 69, 13, 189, 101, 25, 139, 62, 50, 155, 125, 190, 80, 141, 158, 191, 92, 152, 46, 62, 77, 86, 129, 62, 112, 231, 13, 190, 1, 18, 75, 60, 186, 180, 146, 63, 14, 59, 66, 188, 246, 188, 56, 62, 7, 152, 196, 61, 64, 94, 98, 62, 102, 224, 235, 190, 45, 248, 80, 190, 55, 93, 92, 62, 167, 195, 104, 190, 83, 56, 32, 190, 45, 17, 41, 62, 83, 209, 136, 61, 165, 254, 102, 62, 69, 96, 142, 190, 28, 224, 229, 60, 110, 64, 186, 190, 25, 235, 202, 190, 145, 125, 32, 189, 149, 220, 176, 190, 72, 156, 145, 62, 246, 82, 253, 62, 118, 75, 213, 61, 215, 233, 12, 61, 40, 89, 114, 190, 87, 248, 238, 62, 63, 177, 103, 190, 166, 45, 34, 62, 20, 102, 248, 188, 13, 7, 164, 190, 235, 59, 250, 189, 132, 171, 117, 190, 139, 157, 47, 190, 200, 178, 145, 62, 134, 31, 2, 190, 72, 199, 22, 62, 137, 92, 132, 62, 173, 75, 98, 190, 212, 6, 86, 190, 78, 24, 108, 63, 203, 247, 134, 190, 144, 235, 102, 190, 24, 254, 144, 190, 68, 132, 141, 62, 200, 246, 141, 190, 88, 208, 240, 189, 13, 235, 131, 190, 27, 0, 224, 61, 177, 187, 152, 62, 65, 25, 213, 190, 52, 215, 22, 190, 152, 107, 4, 59, 209, 91, 137, 61, 252, 238, 192, 62, 199, 176, 61, 190, 74, 228, 157, 190, 251, 4, 130, 60, 104, 225, 25, 189, 252, 164, 167, 190, 30, 35, 174, 62, 20, 107, 193, 61, 116, 225, 72, 190, 18, 25, 137, 190, 118, 162, 232, 190, 56, 222, 162, 190, 205, 50, 67, 190, 112, 113, 168, 62, 81, 176, 146, 62, 129, 204, 171, 61, 221, 217, 228, 61, 93, 213, 96, 190, 103, 239, 57, 190, 230, 160, 41, 62, 241, 1, 98, 190, 17, 173, 35, 62, 132, 145, 164, 61, 77, 235, 135, 188, 88, 45, 151, 62, 47, 76, 56, 189, 184, 140, 74, 62, 125, 122, 4, 191, 113, 97, 203, 188, 228, 142, 231, 190, 249, 60, 90, 190, 24, 214, 242, 59, 169, 161, 190, 62, 90, 215, 8, 191, 13, 104, 241, 62, 82, 115, 99, 190, 201, 28, 72, 62, 132, 230, 217, 189, 66, 8, 170, 60, 22, 32, 89, 191, 60, 17, 154, 190, 70, 42, 250, 62, 183, 1, 198, 190, 35, 173, 157, 188, 195, 114, 154, 62, 162, 62, 14, 190, 149, 253, 210, 62, 175, 51, 143, 189, 69, 178, 75, 190, 137, 174, 123, 189, 248, 248, 139, 62, 247, 12, 137, 190, 103, 129, 211, 61, 208, 142, 55, 189, 202, 230, 246, 60, 67, 235, 17, 190, 222, 2, 107, 190, 52, 238, 29, 190, 12, 198, 90, 61, 53, 156, 185, 62, 57, 42, 92, 191, 26, 248, 36, 190, 41, 247, 244, 61, 241, 105, 239, 190, 125, 3, 231, 189, 33, 151, 92, 62, 31, 127, 37, 190, 118, 205, 116, 62, 155, 189, 130, 189, 63, 33, 146, 62, 58, 96, 114, 190, 86, 238, 214, 61, 39, 123, 165, 62, 183, 129, 28, 190, 13, 50, 117, 62, 70, 120, 31, 62, 147, 207, 254, 188, 37, 7, 76, 63, 80, 119, 23, 62, 2, 26, 101, 62, 55, 251, 29, 62, 35, 98, 100, 190, 35, 224, 106, 62, 71, 147, 116, 62, 128, 135, 242, 61, 254, 137, 82, 61, 193, 219, 20, 189, 235, 185, 190, 189, 182, 20, 147, 62, 148, 99, 198, 62, 234, 161, 249, 62, 86, 117, 238, 188, 132, 48, 196, 190, 132, 180, 202, 61, 6, 39, 103, 189, 149, 227, 70, 189, 251, 23, 76, 190, 196, 49, 186, 190, 7, 163, 125, 189, 211, 61, 199, 190, 53, 122, 202, 61, 167, 40, 205, 190, 7, 103, 170, 62, 94, 210, 58, 190, 119, 164, 79, 62, 57, 87, 103, 190, 131, 67, 92, 191, 56, 173, 14, 61, 181, 255, 107, 60, 5, 28, 236, 61, 229, 163, 65, 190, 122, 205, 245, 61, 130, 145, 46, 62, 90, 13, 25, 190, 116, 110, 253, 62, 132, 64, 100, 190, 153, 153, 157, 190, 46, 131, 135, 62, 39, 30, 53, 190, 69, 131, 13, 63, 12, 75, 216, 190, 186, 219, 114, 189, 43, 77, 229, 61, 189, 45, 102, 62, 76, 117, 239, 62, 193, 39, 160, 190, 162, 139, 90, 62, 11, 91, 189, 190, 227, 132, 13, 62, 229, 209, 194, 190, 57, 172, 8, 62, 87, 233, 178, 62, 58, 79, 68, 62, 239, 173, 144, 59, 176, 164, 139, 61, 170, 112, 186, 190, 137, 7, 85, 60, 53, 249, 202, 189, 6, 104, 222, 190, 18, 77, 142, 190, 24, 179, 97, 62, 114, 228, 140, 190, 116, 104, 178, 61, 41, 199, 145, 62, 68, 226, 112, 62, 81, 30, 190, 189, 72, 123, 123, 190, 149, 6, 89, 62, 151, 191, 130, 190, 113, 134, 64, 190, 120, 238, 180, 62, 249, 15, 247, 61, 205, 186, 113, 62, 2, 24, 35, 62, 13, 96, 127, 62, 83, 14, 202, 190, 25, 212, 163, 189, 22, 163, 31, 188, 87, 172, 97, 190, 89, 156, 11, 190, 48, 191, 196, 62, 112, 45, 140, 62, 201, 18, 37, 188, 245, 183, 154, 190, 171, 106, 10, 63, 152, 233, 111, 190, 44, 18, 180, 62, 21, 41, 62, 62, 6, 58, 63, 190, 52, 67, 109, 190, 82, 48, 171, 62, 144, 99, 108, 61, 33, 46, 9, 189, 119, 174, 132, 190, 198, 145, 106, 62, 250, 33, 111, 189, 94, 80, 105, 190, 122, 35, 89, 190, 148, 171, 186, 62, 52, 216, 202, 190, 57, 115, 27, 190, 97, 69, 216, 62, 157, 241, 75, 61, 161, 192, 140, 63, 52, 40, 68, 191, 69, 154, 128, 190, 54, 82, 225, 62, 45, 184, 165, 62, 174, 111, 19, 63, 214, 254, 218, 190, 9, 110, 184, 62, 101, 79, 28, 191, 136, 5, 236, 188, 160, 86, 98, 191, 217, 92, 1, 191, 27, 206, 204, 62, 21, 157, 154, 189, 239, 234, 53, 191, 171, 138, 219, 60, 234, 111, 177, 188, 162, 110, 21, 63, 116, 216, 106, 190, 142, 116, 2, 191, 179, 61, 246, 190, 19, 61, 117, 62, 5, 48, 32, 190, 41, 71, 5, 63, 230, 20, 101, 63, 183, 188, 109, 63, 113, 94, 34, 62, 118, 183, 51, 189, 12, 243, 248, 62, 253, 28, 243, 190, 50, 184, 30, 190, 157, 51, 56, 190, 12, 245, 191, 62, 167, 16, 140, 62, 149, 208, 20, 62, 137, 180, 53, 63, 198, 100, 61, 187, 235, 80, 35, 190, 148, 144, 9, 63, 72, 63, 52, 190, 4, 116, 127, 62, 225, 35, 218, 61, 224, 2, 37, 62, 93, 95, 0, 190, 1, 15, 255, 190, 24, 62, 116, 63, 88, 226, 225, 190, 35, 136, 95, 63, 183, 55, 71, 62, 41, 241, 212, 189, 65, 130, 143, 190, 251, 214, 54, 63, 2, 105, 129, 62, 12, 30, 215, 189, 60, 252, 107, 62, 89, 25, 150, 62, 233, 122, 36, 63, 187, 220, 222, 61, 206, 132, 171, 190, 98, 214, 53, 63, 151, 137, 216, 188, 237, 221, 226, 189, 42, 122, 97, 190, 93, 135, 201, 189, 32, 156, 234, 190, 35, 242, 96, 188, 208, 174, 126, 190, 186, 196, 189, 189, 72, 220, 193, 61, 208, 31, 21, 191, 131, 219, 83, 60, 223, 221, 153, 61, 32, 238, 206, 188, 19, 69, 172, 189, 130, 133, 104, 61, 99, 94, 49, 190, 85, 121, 81, 61, 79, 12, 214, 61, 12, 163, 191, 188, 221, 176, 228, 59, 251, 196, 23, 190, 113, 27, 30, 62, 64, 128, 8, 190, 78, 240, 88, 61, 210, 75, 24, 62, 216, 238, 208, 61, 39, 224, 52, 63, 38, 48, 68, 61, 167, 44, 241, 62, 235, 243, 2, 63, 138, 240, 67, 190, 62, 194, 46, 61, 219, 91, 136, 61, 113, 226, 131, 61, 121, 137, 160, 62, 153, 153, 216, 189, 42, 20, 127, 189, 129, 202, 64, 190, 96, 251, 163, 190, 168, 141, 59, 62, 141, 210, 125, 190, 189, 169, 15, 189, 79, 91, 115, 190, 82, 128, 206, 61, 89, 113, 159, 189, 144, 154, 54, 189, 137, 194, 132, 190, 227, 151, 103, 62, 190, 211, 104, 59, 42, 254, 174, 189, 207, 161, 140, 189, 158, 176, 52, 63, 40, 113, 50, 191, 31, 116, 0, 62, 133, 249, 223, 62, 38, 112, 72, 191, 78, 243, 174, 61, 22, 180, 29, 62, 128, 179, 183, 189, 7, 41, 27, 189, 65, 27, 209, 187, 20, 6, 246, 189, 51, 42, 27, 60, 76, 139, 57, 62, 5, 41, 157, 61, 225, 32, 163, 188, 25, 8, 216, 189, 57, 5, 21, 191, 184, 149, 150, 62, 31, 187, 44, 190, 85, 141, 7, 190, 22, 93, 221, 61, 7, 57, 32, 189, 250, 27, 10, 191, 100, 98, 146, 61, 205, 249, 150, 189, 198, 215, 44, 190, 52, 214, 155, 189, 141, 176, 102, 190, 48, 151, 110, 61, 207, 92, 230, 60, 33, 255, 207, 60, 15, 219, 203, 62, 230, 129, 182, 190, 111, 53, 7, 191, 176, 160, 8, 62, 99, 148, 138, 190, 79, 49, 37, 62, 112, 27, 137, 190, 113, 31, 58, 63, 220, 176, 239, 62, 180, 220, 245, 189, 71, 109, 88, 63, 113, 155, 84, 63, 134, 111, 180, 60, 13, 61, 165, 187, 190, 20, 121, 60, 71, 122, 200, 190, 252, 29, 51, 190, 90, 255, 39, 63, 196, 52, 104, 190, 235, 195, 1, 189, 157, 32, 65, 63, 16, 234, 129, 62, 241, 242, 160, 57, 148, 18, 98, 191, 152, 85, 28, 190, 78, 158, 235, 190, 209, 46, 131, 190, 56, 105, 224, 59, 215, 97, 210, 190, 103, 34, 31, 189, 118, 29, 19, 62, 120, 123, 146, 62, 154, 179, 238, 61, 57, 27, 72, 63, 43, 211, 2, 62, 152, 88, 227, 187, 172, 31, 205, 190, 149, 43, 231, 190, 19, 73, 70, 189, 13, 175, 150, 61, 8, 57, 3, 191, 46, 133, 21, 191, 86, 221, 130, 62, 107, 31, 247, 189, 9, 205, 189, 61, 1, 248, 14, 63, 14, 65, 171, 61, 168, 226, 119, 188, 225, 137, 14, 191, 121, 243, 175, 190, 137, 111, 154, 190, 202, 60, 244, 190, 30, 28, 144, 190, 142, 96, 23, 190, 178, 237, 204, 62, 1, 38, 168, 190, 70, 129, 167, 190, 212, 180, 215, 62, 161, 191, 11, 191, 238, 56, 76, 190, 134, 201, 188, 62, 217, 217, 22, 190, 237, 255, 4, 63, 55, 127, 158, 187, 91, 77, 30, 191, 40, 228, 179, 190, 255, 78, 144, 190, 105, 86, 8, 63, 8, 50, 65, 190, 21, 4, 68, 63, 219, 129, 218, 61, 48, 88, 239, 61, 1, 45, 135, 62, 244, 158, 129, 62, 189, 66, 81, 63, 191, 11, 92, 63, 22, 218, 116, 188, 137, 233, 135, 62, 44, 34, 2, 63, 39, 203, 135, 62, 246, 223, 46, 190, 42, 4, 40, 189, 205, 168, 246, 62, 197, 63, 189, 62, 203, 109, 138, 61, 45, 18, 45, 63, 3, 118, 20, 62, 233, 127, 69, 190, 155, 233, 155, 61, 97, 18, 47, 190, 20, 239, 48, 62, 162, 208, 60, 62, 38, 92, 148, 190, 248, 77, 129, 62, 88, 84, 27, 191, 41, 84, 240, 189, 209, 11, 3, 191, 93, 119, 123, 63, 154, 122, 145, 189, 42, 197, 201, 62, 25, 81, 181, 60, 64, 220, 125, 190, 52, 42, 35, 63, 21, 147, 105, 62, 95, 211, 20, 190, 172, 40, 186, 62, 41, 94, 52, 62, 108, 114, 164, 62, 234, 52, 2, 191, 104, 170, 13, 190, 236, 231, 3, 191, 91, 85, 242, 190, 241, 205, 85, 62, 172, 215, 20, 190, 140, 122, 192, 62, 99, 40, 65, 190, 190, 235, 191, 190, 126, 121, 233, 62, 126, 23, 196, 61, 56, 67, 20, 63, 63, 241, 253, 190, 23, 141, 171, 62, 156, 143, 35, 191, 93, 96, 245, 62, 37, 42, 207, 190, 44, 134, 169, 62, 226, 214, 30, 63, 129, 51, 254, 189, 26, 46, 20, 190, 49, 140, 236, 61, 89, 98, 17, 190, 229, 141, 145, 189, 174, 160, 202, 189, 80, 255, 34, 191, 181, 145, 236, 190, 0, 160, 242, 189, 210, 11, 190, 190, 103, 28, 142, 62, 224, 178, 198, 62, 99, 41, 244, 62, 14, 249, 176, 190, 8, 255, 223, 190, 84, 129, 41, 63, 56, 45, 6, 191, 254, 55, 207, 190, 200, 57, 180, 60, 168, 179, 157, 62, 69, 249, 7, 63, 205, 165, 35, 190, 206, 93, 246, 62, 1, 103, 222, 190, 129, 238, 26, 63, 79, 150, 207, 190, 231, 65, 40, 190, 29, 27, 226, 61, 189, 93, 81, 62, 249, 236, 184, 62, 26, 218, 152, 62, 201, 227, 5, 191, 39, 246, 212, 62, 0, 195, 216, 190, 202, 48, 255, 62, 224, 127, 128, 190, 197, 55, 248, 190, 75, 170, 173, 62, 248, 18, 218, 62, 89, 33, 10, 63, 189, 180, 222, 62, 210, 77, 42, 190, 164, 106, 36, 63, 213, 50, 98, 190, 241, 97, 176, 190, 159, 196, 16, 191, 104, 98, 70, 62, 175, 180, 97, 190, 101, 72, 199, 190, 79, 161, 146, 62, 202, 36, 18, 190, 254, 146, 16, 61, 254, 200, 178, 190, 35, 109, 29, 189, 97, 225, 159, 62, 143, 53, 132, 62, 90, 188, 135, 62, 47, 192, 119, 190, 12, 14, 199, 62, 92, 213, 147, 190, 16, 179, 180, 187, 94, 112, 142, 190, 72, 81, 219, 186, 203, 69, 85, 62, 225, 185, 18, 61, 195, 114, 198, 190, 237, 174, 67, 62, 138, 12, 152, 189, 221, 35, 139, 60, 34, 9, 39, 60, 41, 0, 130, 190, 205, 217, 140, 190, 34, 125, 155, 189, 236, 94, 98, 190, 29, 141, 89, 62, 46, 90, 85, 62, 75, 47, 158, 62, 51, 110, 243, 190, 229, 93, 4, 190, 185, 198, 205, 61, 192, 229, 198, 190, 155, 217, 0, 190, 96, 252, 198, 62, 0, 28, 30, 62, 65, 205, 191, 62, 26, 87, 180, 61, 55, 232, 129, 62, 46, 121, 155, 190, 31, 8, 82, 189, 44, 251, 194, 189, 41, 255, 52, 189, 7, 193, 161, 189, 35, 202, 7, 62, 135, 17, 248, 60, 88, 117, 50, 61, 174, 143, 153, 190, 224, 173, 135, 62, 11, 169, 174, 190, 196, 1, 56, 62, 162, 177, 12, 62, 10, 75, 47, 190, 248, 135, 185, 189, 245, 103, 93, 188, 152, 55, 188, 61, 81, 130, 188, 62, 89, 100, 212, 190, 216, 24, 153, 62, 181, 5, 202, 187, 35, 53, 131, 190, 174, 14, 139, 190, 3, 10, 164, 62, 119, 44, 232, 189, 113, 167, 140, 59, 251, 1, 115, 190, 25, 132, 30, 190, 69, 164, 55, 191, 186, 31, 125, 190, 18, 183, 85, 190, 82, 132, 116, 189, 63, 70, 143, 62, 1, 54, 77, 191, 221, 195, 90, 190, 36, 222, 41, 189, 153, 244, 184, 189, 59, 191, 51, 189, 13, 228, 22, 62, 178, 149, 16, 190, 113, 24, 112, 61, 87, 7, 219, 189, 232, 198, 136, 189, 28, 184, 219, 189, 52, 68, 13, 190, 223, 24, 225, 61, 76, 35, 70, 60, 7, 198, 141, 61, 201, 171, 149, 60, 111, 155, 36, 61, 121, 58, 64, 63, 244, 195, 116, 62, 219, 156, 148, 189, 18, 98, 57, 189, 210, 163, 178, 189, 195, 65, 58, 62, 49, 126, 18, 63, 253, 141, 170, 187, 161, 109, 177, 62, 191, 191, 26, 61, 140, 62, 231, 61, 136, 142, 51, 63, 179, 137, 10, 190, 251, 115, 91, 62, 223, 78, 115, 189, 105, 27, 171, 190, 125, 178, 28, 61, 10, 205, 69, 61, 213, 107, 0, 190, 98, 184, 57, 189, 89, 207, 166, 190, 194, 184, 99, 189, 57, 202, 13, 190, 95, 89, 153, 189, 227, 104, 189, 189, 160, 123, 59, 190, 130, 119, 15, 191, 103, 87, 145, 61, 43, 80, 171, 189, 200, 154, 64, 191, 30, 94, 161, 189, 95, 102, 210, 188, 146, 3, 228, 60, 214, 22, 103, 62, 198, 81, 36, 62, 51, 197, 215, 61, 35, 87, 16, 189, 231, 14, 44, 62, 154, 6, 98, 189, 132, 179, 224, 188, 8, 112, 98, 62, 114, 115, 151, 61, 208, 84, 171, 190, 14, 244, 148, 190, 126, 194, 62, 188, 125, 140, 217, 61, 69, 196, 103, 61, 120, 213, 62, 191, 142, 229, 85, 190, 52, 42, 162, 62, 159, 39, 111, 190, 181, 123, 63, 189, 43, 237, 52, 62, 11, 131, 168, 61, 69, 83, 236, 61, 97, 86, 222, 188, 96, 75, 224, 189, 147, 46, 121, 61, 69, 157, 173, 60, 106, 217, 20, 62, 100, 158, 32, 63, 80, 111, 20, 188, 95, 91, 215, 188, 13, 181, 147, 61, 89, 28, 46, 63, 122, 104, 102, 62, 148, 216, 50, 62, 110, 204, 98, 62, 231, 220, 108, 188, 215, 42, 24, 62, 55, 137, 148, 62, 223, 105, 223, 188, 255, 136, 229, 62, 80, 127, 34, 189, 179, 28, 227, 62, 99, 143, 74, 62, 183, 210, 93, 191, 218, 48, 167, 59, 157, 139, 233, 187, 216, 189, 153, 55, 120, 212, 56, 190, 170, 167, 242, 58, 140, 146, 32, 63, 159, 113, 27, 188, 40, 32, 26, 191, 113, 23, 200, 60, 123, 237, 44, 190, 192, 84, 146, 189, 81, 46, 109, 190, 169, 12, 138, 62, 86, 96, 226, 190, 135, 212, 200, 60, 181, 183, 13, 62, 121, 17, 22, 191, 123, 11, 90, 62, 187, 146, 141, 188, 116, 121, 191, 60, 22, 134, 204, 62, 177, 35, 84, 190, 237, 85, 200, 61, 116, 57, 172, 190, 126, 1, 193, 61, 85, 16, 92, 190, 142, 34, 0, 190, 29, 71, 236, 189, 49, 245, 173, 189, 169, 138, 102, 189, 71, 179, 141, 190, 83, 128, 63, 190, 61, 156, 167, 61, 163, 54, 143, 62, 43, 175, 58, 62, 13, 152, 155, 190, 224, 208, 17, 62, 225, 234, 244, 190, 108, 114, 59, 61, 66, 160, 208, 189, 28, 176, 163, 189, 232, 233, 174, 62, 22, 224, 182, 188, 116, 239, 113, 62, 126, 159, 119, 61, 116, 85, 13, 190, 179, 3, 4, 62, 77, 86, 90, 189, 215, 121, 1, 190, 143, 40, 55, 190, 32, 131, 182, 61, 223, 131, 213, 61, 13, 29, 3, 62, 178, 29, 10, 63, 5, 186, 251, 62, 117, 159, 60, 190, 238, 195, 8, 189, 132, 28, 245, 62, 108, 194, 186, 190, 138, 123, 105, 62, 38, 127, 19, 62, 36, 226, 239, 189, 92, 221, 216, 62, 165, 5, 10, 189, 151, 118, 37, 63, 168, 188, 183, 189, 121, 47, 178, 190, 160, 175, 176, 189, 176, 13, 205, 189, 120, 35, 8, 61, 74, 234, 223, 61, 20, 253, 149, 61, 71, 99, 205, 189, 17, 92, 206, 190, 40, 174, 45, 190, 134, 127, 175, 190, 243, 150, 174, 62, 194, 122, 111, 190, 158, 112, 144, 189, 110, 42, 207, 61, 218, 38, 59, 62, 167, 57, 176, 189, 31, 26, 201, 60, 38, 153, 235, 189, 215, 84, 65, 62, 2, 195, 239, 61, 34, 89, 146, 189, 34, 118, 77, 61, 231, 85, 89, 188, 220, 159, 44, 190, 183, 134, 155, 61, 35, 29, 156, 190, 236, 249, 179, 190, 244, 103, 174, 59, 219, 186, 177, 190, 57, 47, 213, 190, 183, 97, 131, 189, 105, 26, 226, 62, 217, 88, 139, 190, 218, 199, 144, 190, 159, 236, 139, 62, 24, 106, 140, 190, 216, 227, 55, 61, 35, 252, 28, 62, 106, 84, 233, 189, 214, 14, 114, 62, 139, 94, 192, 61, 67, 2, 46, 189, 210, 49, 179, 61, 11, 39, 15, 191, 10, 106, 39, 189, 201, 7, 108, 190, 70, 185, 14, 190, 143, 217, 148, 61, 186, 215, 112, 62, 91, 180, 21, 62, 214, 31, 78, 62, 221, 24, 148, 189, 195, 107, 137, 189, 62, 206, 38, 190, 96, 123, 91, 189, 10, 181, 153, 62, 24, 153, 176, 61, 230, 118, 182, 189, 255, 53, 174, 60, 112, 246, 116, 61, 54, 46, 251, 62, 9, 78, 163, 189, 148, 212, 51, 62, 26, 39, 40, 190, 181, 16, 96, 190, 63, 245, 163, 61, 251, 255, 226, 60, 140, 57, 129, 190, 52, 134, 2, 62, 209, 90, 80, 190, 143, 159, 121, 62, 152, 102, 164, 190, 176, 119, 200, 60, 61, 65, 7, 190, 108, 147, 247, 189, 77, 59, 11, 191, 234, 165, 21, 190, 228, 172, 169, 62, 15, 91, 167, 190, 32, 237, 72, 62, 33, 179, 195, 60, 251, 151, 150, 61, 51, 153, 154, 62, 151, 23, 135, 62, 110, 32, 10, 62, 78, 121, 134, 61, 84, 122, 80, 62, 35, 163, 194, 190, 94, 21, 59, 190, 131, 135, 80, 62, 42, 144, 177, 189, 37, 45, 57, 190, 31, 86, 80, 61, 145, 243, 138, 188, 72, 171, 139, 61, 115, 134, 29, 62, 157, 202, 196, 190, 174, 225, 1, 61, 201, 44, 157, 189, 167, 169, 189, 61, 158, 8, 60, 62, 218, 174, 80, 190, 30, 243, 93, 189, 128, 143, 199, 188, 124, 177, 53, 189, 150, 82, 39, 189, 193, 212, 227, 61, 85, 40, 8, 61, 216, 26, 222, 189, 222, 119, 123, 62, 83, 57, 67, 190, 158, 232, 213, 189, 8, 60, 93, 189, 114, 17, 225, 62, 147, 175, 199, 61, 179, 255, 69, 190, 78, 123, 171, 190, 99, 71, 24, 190, 175, 124, 82, 190, 96, 29, 164, 188, 17, 212, 238, 189, 98, 99, 6, 62, 60, 110, 243, 60, 141, 238, 161, 189, 229, 199, 126, 62, 245, 154, 208, 61, 56, 237, 209, 189, 59, 171, 69, 190, 240, 123, 202, 189, 29, 238, 112, 190, 150, 242, 188, 189, 60, 193, 252, 61, 8, 165, 116, 62, 118, 159, 109, 190, 48, 194, 147, 61, 161, 137, 123, 61, 35, 57, 152, 188, 84, 68, 228, 189, 118, 80, 246, 190, 85, 3, 234, 190, 235, 2, 64, 190, 204, 24, 104, 62, 177, 26, 237, 190, 112, 10, 190, 190, 33, 67, 61, 62, 198, 224, 14, 189, 193, 206, 241, 61, 4, 244, 199, 190, 72, 111, 100, 190, 220, 79, 141, 57, 19, 193, 178, 60, 197, 76, 46, 191, 90, 92, 176, 190, 74, 84, 145, 62, 27, 53, 250, 190, 229, 93, 1, 63, 200, 234, 62, 191, 73, 112, 148, 190, 73, 32, 120, 63, 20, 149, 228, 62, 233, 96, 61, 63, 178, 157, 2, 191, 127, 214, 254, 62, 21, 156, 127, 191, 142, 220, 77, 63, 189, 161, 87, 191, 226, 188, 57, 187, 32, 156, 60, 63, 24, 160, 118, 188, 159, 170, 51, 62, 32, 31, 106, 62, 37, 235, 42, 191, 112, 79, 152, 190, 34, 6, 54, 63, 217, 252, 85, 191, 250, 243, 79, 191, 68, 156, 32, 63, 93, 155, 43, 191, 238, 242, 222, 62, 11, 91, 137, 62, 90, 122, 239, 62, 81, 130, 161, 190, 218, 247, 78, 191, 155, 180, 55, 63, 75, 99, 41, 191, 31, 54, 75, 190, 126, 169, 95, 63, 75, 154, 249, 62, 84, 102, 25, 63, 104, 139, 178, 189, 44, 65, 118, 63, 135, 184, 7, 191, 213, 93, 15, 62, 234, 9, 41, 190, 24, 144, 13, 191, 212, 166, 0, 62, 29, 99, 200, 62, 2, 216, 42, 63, 253, 57, 101, 189, 118, 88, 41, 191, 213, 77, 93, 63, 79, 254, 25, 191, 236, 36, 190, 62, 116, 8, 211, 61, 55, 219, 74, 191, 154, 101, 226, 189, 184, 56, 106, 63, 104, 106, 46, 63, 53, 227, 113, 187, 93, 196, 139, 190, 55, 234, 25, 63, 24, 205, 152, 189, 118, 87, 59, 191, 157, 232, 93, 191, 133, 66, 181, 62, 244, 67, 201, 190, 117, 235, 17, 191, 150, 38, 230, 189, 18, 170, 78, 191, 210, 166, 64, 190, 157, 231, 236, 190, 191, 253, 163, 190, 67, 226, 241, 62, 231, 154, 102, 62, 207, 43, 216, 190, 30, 226, 23, 190, 104, 175, 116, 62, 243, 164, 16, 190, 52, 3, 255, 61, 20, 72, 29, 61, 85, 107, 168, 190, 13, 87, 21, 62, 216, 81, 15, 190, 124, 209, 19, 188, 175, 59, 242, 61, 184, 247, 38, 191, 96, 243, 138, 62, 181, 116, 137, 62, 158, 85, 194, 60, 203, 251, 39, 190, 68, 20, 108, 62, 112, 70, 178, 62, 62, 162, 66, 62, 236, 212, 177, 62, 104, 115, 55, 62, 180, 14, 43, 191, 131, 90, 223, 189, 23, 231, 111, 62, 189, 19, 238, 189, 64, 153, 226, 61, 64, 125, 100, 62, 167, 102, 75, 62, 254, 128, 24, 62, 96, 180, 204, 61, 237, 72, 52, 61, 227, 34, 159, 190, 90, 88, 201, 190, 215, 95, 176, 190, 211, 229, 196, 190, 191, 8, 140, 62, 59, 51, 26, 63, 15, 173, 117, 190, 6, 81, 91, 62, 227, 188, 114, 190, 226, 111, 84, 62, 47, 216, 208, 189, 108, 23, 70, 62, 196, 78, 12, 191, 37, 158, 172, 189, 80, 139, 114, 62, 104, 193, 31, 191, 42, 190, 75, 62, 248, 10, 47, 63, 202, 176, 201, 190, 76, 41, 64, 62, 89, 4, 12, 190, 205, 72, 99, 190, 92, 191, 213, 189, 47, 253, 244, 62, 92, 155, 0, 62, 229, 235, 42, 189, 245, 70, 128, 190, 72, 40, 97, 191, 146, 35, 8, 63, 147, 228, 247, 190, 75, 184, 174, 189, 198, 215, 241, 189, 127, 252, 118, 61, 48, 174, 234, 190, 247, 152, 28, 62, 57, 55, 248, 61, 253, 197, 143, 60, 10, 170, 161, 62, 245, 174, 3, 190, 229, 103, 10, 62, 51, 81, 209, 61, 178, 155, 170, 61, 92, 45, 25, 63, 120, 124, 8, 190, 118, 106, 116, 191, 143, 96, 77, 62, 166, 190, 217, 188, 75, 177, 153, 57, 109, 22, 145, 190, 249, 124, 84, 63, 82, 250, 212, 61, 93, 99, 29, 190, 6, 251, 221, 61, 34, 216, 80, 62, 209, 164, 74, 62, 65, 43, 102, 189, 188, 23, 12, 62, 143, 185, 21, 190, 185, 218, 212, 190, 212, 15, 145, 62, 159, 51, 150, 190, 116, 42, 227, 61, 36, 83, 146, 62, 26, 93, 11, 61, 71, 126, 131, 190, 66, 105, 37, 191, 214, 135, 236, 61, 81, 187, 10, 191, 80, 205, 108, 61, 156, 205, 26, 62, 137, 128, 233, 190, 112, 148, 31, 62, 108, 65, 206, 60, 147, 251, 212, 62, 5, 124, 200, 189, 173, 101, 89, 62, 42, 181, 18, 62, 27, 10, 70, 190, 186, 20, 84, 189, 0, 52, 15, 191, 241, 203, 183, 190, 126, 225, 41, 190, 232, 232, 163, 190, 151, 200, 98, 190, 146, 195, 17, 62, 7, 38, 121, 190, 73, 178, 16, 62, 172, 77, 30, 63, 99, 154, 16, 190, 65, 182, 156, 60, 90, 53, 225, 189, 150, 105, 179, 188, 205, 185, 54, 62, 189, 40, 92, 189, 244, 123, 41, 190, 81, 233, 98, 190, 61, 240, 13, 62, 185, 87, 6, 191, 241, 251, 143, 189, 112, 173, 161, 61, 193, 54, 68, 190, 224, 164, 118, 62, 198, 25, 8, 189, 54, 150, 142, 189, 86, 41, 246, 60, 64, 136, 193, 189, 171, 35, 141, 190, 61, 215, 39, 61, 233, 205, 158, 61, 100, 70, 129, 189, 9, 31, 167, 189, 100, 10, 80, 188, 31, 84, 192, 60, 248, 233, 19, 189, 243, 171, 189, 62, 47, 117, 134, 62, 89, 20, 173, 190, 167, 144, 32, 190, 82, 4, 123, 61, 129, 22, 18, 190, 170, 74, 253, 58, 243, 67, 5, 62, 59, 132, 68, 189, 128, 23, 234, 189, 172, 132, 168, 62, 81, 49, 247, 188, 234, 116, 149, 189, 42, 253, 150, 60, 77, 34, 49, 190, 10, 170, 247, 61, 22, 22, 17, 62, 153, 151, 100, 188, 37, 170, 157, 61, 53, 218, 66, 188, 37, 152, 157, 190, 133, 225, 9, 62, 33, 193, 9, 189, 228, 99, 221, 189, 212, 27, 179, 189, 49, 194, 225, 190, 18, 23, 215, 189, 130, 230, 129, 189, 39, 241, 221, 61, 146, 188, 1, 191, 169, 8, 201, 62, 215, 217, 195, 189, 181, 14, 172, 61, 117, 112, 116, 62, 81, 153, 194, 189, 166, 213, 227, 189, 173, 137, 112, 190, 58, 217, 254, 188, 81, 241, 53, 190, 104, 72, 18, 62, 116, 164, 250, 189, 113, 116, 251, 188, 121, 119, 15, 190, 204, 210, 228, 190, 97, 45, 131, 190, 157, 226, 51, 62, 129, 30, 197, 61, 178, 182, 3, 191, 99, 187, 41, 190, 10, 101, 20, 62, 168, 144, 165, 190, 101, 51, 64, 189, 151, 75, 189, 61, 68, 98, 25, 190, 31, 120, 159, 62, 128, 168, 220, 61, 42, 233, 32, 60, 32, 201, 136, 60, 207, 148, 124, 189, 18, 220, 152, 62, 43, 108, 208, 189, 220, 183, 247, 61, 16, 61, 218, 61, 118, 252, 27, 62, 175, 243, 9, 63, 30, 227, 110, 62, 29, 216, 70, 62, 71, 119, 184, 62, 96, 223, 213, 188, 206, 47, 125, 60, 70, 199, 39, 62, 5, 230, 64, 188, 140, 105, 108, 62, 40, 81, 30, 60, 133, 41, 74, 61, 176, 23, 161, 62, 134, 116, 0, 63, 143, 242, 182, 62, 124, 69, 22, 61, 192, 70, 109, 190, 99, 25, 86, 59, 245, 170, 12, 190, 96, 219, 133, 60, 42, 83, 18, 189, 169, 57, 51, 190, 206, 31, 53, 60, 188, 190, 152, 190, 254, 63, 202, 61, 149, 248, 183, 190, 104, 196, 217, 62, 8, 247, 68, 189, 218, 111, 97, 189, 164, 159, 148, 188, 28, 138, 34, 191, 190, 59, 220, 58, 213, 30, 205, 61, 109, 8, 194, 60, 201, 24, 19, 190, 104, 231, 25, 190, 108, 120, 189, 59, 222, 155, 51, 190, 101, 196, 145, 62, 165, 164, 132, 189, 159, 78, 84, 62, 194, 219, 183, 189, 109, 144, 83, 62, 99, 10, 29, 191, 55, 100, 0, 189, 143, 215, 136, 62, 6, 155, 230, 189, 34, 2, 114, 62, 18, 244, 18, 191, 16, 73, 141, 61, 56, 168, 132, 61, 28, 128, 117, 60, 55, 169, 130, 188, 231, 137, 32, 62, 235, 109, 53, 189, 24, 49, 11, 190, 153, 207, 223, 59, 201, 87, 43, 190, 219, 181, 238, 62, 123, 131, 140, 62, 167, 240, 202, 61, 216, 156, 22, 62, 47, 168, 17, 189, 180, 58, 79, 62, 140, 193, 172, 190, 12, 205, 117, 63, 142, 135, 92, 61, 101, 228, 120, 62, 83, 158, 139, 189, 177, 162, 90, 189, 95, 85, 67, 62, 154, 198, 16, 62, 165, 209, 28, 62, 20, 213, 173, 62, 226, 140, 53, 190, 82, 89, 130, 62, 162, 194, 8, 61, 74, 254, 3, 191, 11, 67, 55, 190, 50, 54, 18, 189, 230, 138, 11, 62, 187, 152, 197, 189, 130, 141, 133, 62, 89, 134, 21, 62, 81, 175, 19, 190, 44, 205, 55, 190, 245, 87, 54, 190, 113, 136, 102, 60, 63, 245, 82, 190, 21, 71, 13, 62, 194, 31, 117, 189, 215, 11, 188, 190, 6, 249, 129, 60, 16, 24, 219, 61, 112, 99, 111, 191, 8, 207, 53, 62, 56, 239, 234, 189, 243, 75, 67, 62, 94, 242, 168, 62, 108, 72, 245, 61, 180, 147, 240, 61, 118, 38, 70, 190, 27, 111, 189, 189, 91, 195, 181, 189, 44, 121, 108, 190, 165, 221, 149, 61, 210, 71, 14, 190, 233, 101, 155, 189, 198, 113, 14, 62, 17, 34, 17, 61, 92, 217, 156, 60, 72, 182, 238, 61, 106, 192, 22, 190, 74, 14, 81, 190, 107, 11, 9, 62, 231, 219, 50, 60, 218, 133, 85, 62, 125, 219, 253, 189, 119, 39, 31, 189, 242, 81, 197, 61, 205, 161, 25, 60, 164, 110, 164, 60, 182, 80, 103, 61, 170, 228, 134, 61, 128, 129, 165, 187, 15, 65, 147, 62, 93, 111, 22, 190, 110, 69, 191, 189, 14, 88, 109, 189, 93, 114, 18, 62, 210, 92, 169, 61, 51, 49, 20, 189, 212, 98, 2, 190, 234, 187, 66, 190, 108, 50, 28, 190, 59, 54, 2, 62, 151, 155, 94, 188, 148, 9, 100, 188, 28, 10, 173, 61, 83, 102, 183, 186, 206, 25, 18, 61, 212, 98, 22, 191, 223, 136, 177, 188, 24, 11, 111, 190, 121, 214, 55, 188, 248, 168, 39, 190, 39, 197, 171, 189, 59, 49, 155, 62, 201, 107, 111, 62, 190, 155, 65, 190, 158, 180, 28, 62, 16, 185, 147, 61, 142, 0, 243, 188, 101, 94, 74, 61, 192, 131, 250, 187, 169, 208, 122, 190, 34, 239, 135, 190, 83, 115, 114, 62, 23, 89, 96, 190, 149, 214, 110, 189, 27, 1, 26, 62, 220, 7, 1, 190, 149, 35, 166, 62, 233, 157, 87, 190, 47, 113, 109, 190, 2, 30, 104, 190, 53, 38, 170, 188, 69, 240, 125, 189, 168, 226, 139, 189, 121, 178, 20, 62, 14, 111, 31, 62, 153, 49, 248, 189, 243, 165, 120, 188, 129, 210, 184, 61, 211, 200, 207, 189, 112, 218, 32, 62, 180, 54, 162, 190, 204, 189, 102, 189, 61, 232, 116, 189, 231, 117, 51, 59, 117, 168, 240, 61, 36, 188, 62, 189, 147, 82, 26, 189, 161, 93, 124, 61, 51, 3, 8, 189, 6, 228, 220, 189, 202, 114, 132, 61, 157, 122, 23, 62, 220, 247, 228, 188, 87, 69, 15, 63, 89, 170, 173, 189, 32, 109, 161, 189, 242, 164, 136, 189, 77, 199, 194, 62, 120, 182, 42, 61, 198, 66, 12, 61, 233, 68, 1, 190, 156, 58, 81, 189, 69, 82, 211, 189, 246, 124, 131, 62, 237, 202, 11, 62, 3, 33, 43, 62, 80, 20, 212, 187, 206, 171, 30, 62, 94, 139, 146, 62, 44, 170, 237, 190, 117, 85, 149, 189, 24, 15, 25, 190, 147, 41, 78, 61, 9, 29, 34, 190, 98, 205, 143, 61, 141, 95, 12, 62, 191, 65, 52, 62, 163, 140, 72, 190, 127, 71, 112, 62, 108, 46, 56, 189, 18, 103, 229, 188, 69, 196, 85, 188, 254, 142, 13, 190, 236, 125, 194, 190, 90, 250, 116, 189, 91, 94, 132, 62, 42, 217, 209, 190, 48, 228, 156, 189, 126, 240, 148, 188, 51, 19, 130, 61, 199, 243, 238, 62, 181, 235, 93, 190, 151, 21, 93, 189, 107, 246, 73, 190, 113, 89, 134, 60, 196, 2, 129, 190, 128, 12, 177, 189, 154, 213, 108, 62, 213, 48, 29, 191, 38, 15, 61, 63, 202, 68, 34, 191, 184, 108, 159, 190, 71, 188, 146, 62, 236, 138, 140, 62, 22, 119, 106, 189, 26, 103, 110, 190, 134, 226, 72, 62, 55, 133, 134, 190, 41, 77, 109, 62, 101, 152, 134, 190, 82, 140, 242, 190, 80, 237, 68, 62, 169, 52, 75, 60, 212, 135, 36, 189, 155, 129, 237, 189, 34, 152, 110, 191, 62, 175, 74, 62, 42, 56, 241, 188, 191, 110, 126, 189, 87, 41, 18, 190, 168, 101, 3, 63, 88, 119, 156, 189, 184, 84, 56, 62, 128, 43, 27, 62, 142, 234, 57, 62, 100, 185, 135, 190, 180, 1, 140, 190, 105, 178, 135, 62, 48, 7, 204, 189, 172, 181, 37, 191, 27, 100, 115, 62, 250, 8, 64, 188, 156, 132, 239, 62, 3, 41, 205, 61, 109, 228, 201, 62, 140, 167, 195, 190, 133, 100, 96, 191, 140, 16, 74, 62, 244, 28, 119, 190, 151, 211, 53, 62, 217, 50, 31, 62, 177, 241, 230, 60, 182, 211, 229, 188, 225, 64, 170, 190, 137, 172, 166, 62, 22, 95, 80, 190, 83, 176, 20, 61, 94, 208, 120, 62, 75, 186, 255, 60, 165, 11, 10, 190, 77, 123, 4, 190, 14, 95, 12, 62, 80, 241, 211, 187, 199, 250, 133, 190, 250, 127, 93, 62, 198, 181, 69, 62, 162, 188, 23, 190, 226, 47, 113, 60, 59, 46, 8, 63, 222, 212, 68, 61, 99, 132, 175, 61, 110, 96, 91, 61, 223, 78, 130, 190, 131, 8, 136, 188, 35, 0, 207, 189, 202, 245, 35, 190, 109, 96, 8, 62, 183, 113, 72, 61, 4, 177, 137, 190, 4, 4, 2, 61, 130, 3, 77, 62, 241, 76, 2, 188, 92, 146, 96, 190, 36, 145, 100, 62, 31, 179, 227, 189, 89, 148, 14, 61, 154, 206, 50, 190, 55, 60, 150, 62, 69, 104, 231, 189, 247, 7, 161, 190, 178, 205, 160, 62, 206, 25, 27, 190, 12, 31, 193, 62, 188, 8, 173, 189, 40, 152, 181, 62, 113, 74, 143, 62, 93, 158, 9, 190, 138, 52, 65, 63, 97, 52, 242, 62, 11, 10, 51, 189, 75, 49, 125, 62, 176, 33, 244, 188, 37, 46, 52, 190, 13, 44, 104, 190, 154, 47, 171, 62, 203, 243, 166, 60, 192, 213, 3, 62, 91, 187, 65, 63, 59, 178, 170, 62, 132, 30, 212, 62, 203, 141, 89, 191, 131, 231, 203, 61, 115, 142, 65, 190, 38, 129, 13, 189, 224, 13, 56, 190, 243, 159, 132, 60, 228, 23, 119, 190, 90, 80, 240, 58, 84, 177, 206, 60, 248, 21, 153, 189, 163, 149, 56, 63, 201, 128, 42, 62, 148, 154, 165, 62, 161, 255, 213, 190, 127, 180, 54, 190, 122, 90, 25, 60, 237, 166, 38, 188, 176, 136, 157, 190, 1, 201, 71, 191, 225, 227, 214, 62, 20, 129, 13, 189, 87, 124, 67, 60, 225, 44, 128, 62, 11, 189, 251, 190, 79, 163, 243, 190, 208, 173, 251, 189, 201, 163, 195, 190, 6, 136, 80, 63, 111, 210, 171, 190, 158, 64, 196, 190, 189, 216, 173, 62, 31, 66, 229, 62, 1, 31, 104, 62, 163, 158, 208, 190, 5, 25, 25, 62, 99, 1, 250, 190, 20, 27, 129, 62, 97, 245, 184, 190, 229, 17, 93, 190, 239, 115, 15, 63, 219, 46, 38, 188, 199, 75, 217, 187, 39, 163, 228, 188, 54, 18, 163, 190, 206, 171, 143, 62, 92, 54, 245, 189, 201, 103, 177, 190, 14, 150, 10, 191, 245, 83, 10, 62, 166, 74, 14, 191, 20, 155, 37, 62, 51, 243, 190, 62, 116, 108, 176, 62, 118, 20, 29, 190, 144, 126, 157, 190, 48, 118, 233, 62, 164, 13, 106, 190, 10, 188, 6, 191, 195, 162, 40, 63, 38, 57, 104, 60, 153, 225, 5, 63, 64, 9, 76, 62, 14, 52, 11, 63, 84, 109, 251, 190, 92, 107, 59, 62, 30, 152, 109, 190, 112, 240, 196, 190, 210, 187, 100, 62, 221, 213, 252, 62, 183, 11, 145, 61, 51, 121, 251, 190, 82, 122, 25, 191, 145, 148, 18, 63, 192, 123, 221, 190, 255, 219, 185, 62, 205, 158, 21, 63, 202, 97, 185, 190, 156, 91, 204, 190, 185, 233, 129, 61, 208, 144, 1, 62, 180, 92, 80, 62, 50, 180, 173, 190, 5, 251, 169, 62, 99, 134, 38, 190, 213, 144, 229, 190, 64, 194, 129, 190, 27, 227, 199, 61, 73, 195, 174, 190, 68, 157, 50, 62, 213, 91, 23, 191, 141, 173, 33, 189, 42, 247, 119, 191, 112, 54, 132, 190, 113, 100, 11, 191, 240, 187, 162, 190, 224, 104, 52, 63, 194, 240, 78, 191, 165, 111, 6, 191, 90, 73, 192, 62, 200, 52, 231, 190, 162, 162, 223, 190, 223, 197, 47, 63, 172, 32, 42, 190, 28, 145, 34, 63, 56, 126, 129, 189, 9, 25, 143, 190, 85, 238, 138, 190, 185, 96, 33, 61, 73, 76, 107, 61, 135, 241, 41, 62, 100, 133, 59, 63, 161, 164, 255, 62, 229, 214, 240, 188, 47, 88, 41, 63, 165, 62, 102, 62, 130, 192, 73, 63, 250, 3, 41, 63, 124, 21, 187, 61, 221, 68, 187, 62, 72, 60, 32, 63, 121, 186, 252, 62, 191, 177, 178, 62, 222, 139, 111, 189, 226, 245, 6, 63, 178, 148, 251, 62, 24, 16, 225, 189, 2, 233, 31, 63, 16, 133, 82, 62, 35, 80, 16, 189, 122, 141, 45, 189, 207, 194, 207, 61, 70, 102, 173, 62, 165, 180, 11, 189, 207, 21, 10, 191, 210, 171, 202, 62, 35, 247, 252, 190, 187, 27, 211, 190, 191, 197, 23, 191, 12, 55, 67, 63, 243, 41, 36, 191, 105, 32, 215, 62, 14, 207, 17, 63, 86, 247, 76, 191, 137, 142, 48, 63, 111, 52, 115, 61, 152, 67, 179, 189, 100, 14, 204, 62, 122, 36, 42, 190, 199, 38, 184, 62, 234, 19, 50, 191, 129, 48, 69, 190, 248, 87, 128, 62, 130, 31, 227, 61, 20, 120, 233, 61, 69, 115, 4, 62, 147, 143, 193, 189, 108, 214, 81, 62, 197, 160, 223, 61, 140, 181, 64, 188, 82, 226, 3, 60, 236, 6, 176, 190, 71, 92, 126, 62, 52, 189, 160, 189, 127, 6, 66, 62, 171, 215, 154, 189, 165, 116, 91, 61, 124, 8, 92, 189, 234, 68, 95, 190, 210, 149, 157, 189, 160, 208, 88, 190, 47, 134, 127, 62, 89, 133, 168, 61, 191, 46, 32, 61, 91, 81, 130, 61, 40, 195, 185, 61, 248, 78, 40, 61, 30, 211, 255, 189, 115, 52, 242, 62, 234, 98, 146, 188, 18, 143, 9, 62, 62, 59, 166, 188, 36, 193, 61, 189, 246, 71, 176, 61, 244, 93, 252, 189, 65, 66, 205, 61, 141, 225, 217, 186, 232, 132, 87, 190, 144, 141, 223, 61, 222, 251, 132, 189, 144, 154, 148, 190, 58, 216, 92, 190, 191, 2, 50, 188, 115, 65, 166, 189, 180, 152, 0, 61, 225, 140, 68, 61, 139, 183, 186, 61, 46, 9, 254, 189, 210, 245, 87, 190, 154, 71, 249, 189, 168, 153, 20, 62, 200, 209, 84, 61, 154, 4, 212, 60, 241, 66, 237, 189, 243, 193, 85, 190, 207, 176, 166, 61, 52, 176, 162, 188, 148, 85, 21, 191, 73, 158, 58, 189, 78, 230, 78, 190, 8, 167, 202, 60, 210, 19, 64, 62, 133, 5, 8, 61, 244, 218, 111, 61, 42, 90, 176, 189, 88, 202, 203, 189, 16, 227, 100, 188, 216, 157, 128, 190, 161, 47, 87, 62, 242, 82, 100, 190, 172, 238, 230, 61, 65, 245, 67, 189, 247, 180, 169, 190, 100, 62, 176, 62, 106, 76, 49, 190, 189, 3, 203, 61, 232, 6, 122, 61, 11, 148, 138, 190, 112, 146, 201, 189, 109, 65, 138, 62, 105, 71, 19, 190, 36, 36, 127, 62, 95, 60, 117, 61, 3, 140, 6, 62, 67, 53, 188, 62, 128, 31, 56, 190, 222, 129, 139, 190, 53, 141, 58, 190, 127, 231, 164, 189, 124, 190, 4, 190, 12, 30, 64, 190, 77, 163, 131, 62, 110, 253, 134, 59, 233, 207, 10, 190, 131, 122, 153, 190, 144, 244, 52, 190, 226, 51, 121, 190, 182, 164, 229, 189, 75, 236, 14, 61, 39, 236, 45, 190, 181, 153, 55, 62, 197, 131, 161, 62, 83, 175, 174, 186, 202, 50, 168, 62, 159, 123, 77, 62, 244, 103, 5, 62, 25, 35, 160, 189, 89, 244, 195, 190, 68, 184, 62, 190, 250, 226, 44, 190, 235, 1, 83, 190, 194, 12, 1, 62, 213, 144, 163, 188, 232, 244, 194, 60, 133, 224, 4, 190, 235, 55, 134, 61, 176, 122, 222, 189, 181, 125, 163, 190, 240, 197, 208, 188, 183, 160, 76, 190, 90, 164, 215, 190, 140, 244, 118, 187, 40, 132, 58, 60, 210, 244, 164, 62, 213, 6, 159, 190, 202, 134, 227, 61, 35, 33, 111, 186, 202, 80, 73, 190, 182, 165, 12, 189, 140, 152, 80, 62, 236, 135, 228, 190, 55, 223, 183, 189, 46, 135, 220, 62, 111, 17, 84, 190, 71, 124, 35, 63, 168, 14, 41, 191, 174, 208, 18, 191, 192, 243, 143, 63, 141, 240, 243, 62, 64, 197, 74, 62, 124, 88, 224, 190, 120, 206, 99, 62, 179, 51, 206, 190, 175, 125, 212, 62, 112, 185, 11, 191, 51, 47, 133, 190, 133, 236, 188, 62, 242, 91, 38, 190, 109, 186, 87, 190, 96, 201, 151, 62, 231, 27, 80, 190, 191, 150, 45, 62, 145, 77, 183, 62, 132, 82, 110, 191, 66, 170, 23, 191, 179, 106, 13, 63, 15, 122, 15, 190, 74, 141, 4, 63, 105, 4, 250, 62, 120, 102, 53, 63, 69, 92, 186, 190, 189, 72, 234, 190, 203, 43, 149, 62, 145, 167, 170, 190, 254, 69, 105, 190, 20, 218, 195, 62, 103, 69, 233, 189, 206, 1, 160, 189, 192, 176, 64, 191, 248, 207, 208, 62, 49, 7, 42, 189, 104, 212, 134, 190, 83, 201, 94, 61, 5, 53, 193, 189, 94, 217, 184, 62, 243, 172, 154, 61, 237, 25, 1, 62, 203, 106, 38, 190, 241, 242, 193, 190, 209, 213, 78, 63, 177, 131, 207, 190, 3, 172, 51, 63, 86, 145, 254, 188, 215, 147, 242, 190, 157, 98, 196, 189, 166, 165, 133, 62, 41, 74, 242, 61, 128, 126, 219, 189, 136, 184, 28, 62, 251, 232, 253, 62, 15, 198, 191, 62, 101, 33, 190, 189, 104, 173, 21, 189, 215, 19, 131, 63, 71, 20, 39, 190, 216, 142, 161, 190, 92, 161, 61, 190, 8, 146, 146, 190, 192, 232, 199, 188, 135, 157, 12, 191, 132, 172, 129, 190, 29, 242, 254, 61, 140, 96, 108, 62, 18, 41, 79, 189, 114, 255, 76, 190, 52, 72, 166, 61, 156, 45, 5, 191, 116, 51, 152, 61, 8, 170, 163, 61, 188, 137, 75, 190, 163, 41, 214, 62, 44, 69, 19, 61, 51, 173, 12, 191, 167, 74, 71, 190, 218, 26, 178, 189, 243, 40, 52, 62, 120, 223, 159, 189, 79, 4, 221, 62, 161, 19, 108, 190, 140, 103, 147, 188, 126, 217, 219, 60, 41, 201, 94, 62, 188, 236, 244, 62, 126, 67, 234, 62, 229, 179, 175, 60, 6, 68, 203, 61, 99, 211, 191, 62, 47, 193, 78, 62, 101, 115, 175, 61, 177, 191, 107, 190, 113, 106, 97, 62, 157, 111, 219, 62, 172, 93, 0, 60, 48, 108, 20, 63, 173, 66, 13, 62, 103, 97, 77, 190, 172, 120, 42, 62, 15, 254, 111, 61, 231, 87, 219, 61, 151, 33, 246, 61, 235, 252, 2, 190, 220, 171, 23, 62, 68, 137, 227, 190, 135, 214, 9, 190, 198, 254, 198, 190, 80, 49, 18, 63, 72, 139, 153, 61, 230, 57, 14, 62, 15, 166, 70, 189, 12, 205, 60, 61, 155, 30, 122, 62, 185, 100, 89, 62, 145, 42, 173, 190, 130, 17, 232, 62, 157, 226, 215, 61, 104, 70, 168, 61, 36, 175, 150, 190, 63, 56, 131, 62, 125, 254, 122, 190, 238, 9, 246, 189, 122, 199, 50, 63, 206, 15, 8, 62, 48, 126, 205, 62, 196, 10, 156, 190, 94, 166, 191, 190, 205, 143, 70, 62, 42, 79, 229, 61, 8, 187, 239, 62, 2, 111, 153, 189, 126, 184, 48, 190, 132, 234, 169, 190, 177, 237, 140, 62, 29, 119, 251, 190, 239, 78, 185, 190, 89, 255, 161, 62, 40, 139, 215, 189, 129, 191, 155, 190, 83, 184, 35, 62, 106, 219, 251, 189, 63, 6, 11, 190, 31, 98, 165, 189, 110, 237, 30, 191, 75, 131, 153, 190, 148, 179, 220, 62, 241, 181, 6, 191, 7, 233, 22, 62, 63, 67, 73, 63, 181, 2, 10, 63, 80, 113, 91, 61, 151, 172, 142, 190, 6, 160, 102, 62, 21, 248, 10, 191, 200, 229, 142, 190, 53, 51, 0, 63, 68, 146, 4, 190, 27, 218, 160, 189, 222, 234, 166, 190, 43, 102, 12, 63, 54, 125, 181, 190, 29, 191, 63, 190, 154, 164, 128, 62, 233, 193, 193, 190, 164, 40, 133, 61, 130, 80, 180, 62, 65, 37, 45, 62, 53, 207, 248, 185, 150, 163, 170, 190, 9, 146, 22, 63, 97, 253, 170, 190, 57, 53, 19, 63, 250, 19, 150, 62, 166, 80, 9, 191, 248, 118, 203, 190, 210, 158, 224, 62, 19, 80, 182, 61, 255, 56, 44, 190, 217, 182, 95, 190, 75, 25, 25, 189, 131, 160, 245, 62, 155, 89, 155, 190, 183, 26, 118, 189, 12, 121, 47, 63, 50, 238, 164, 190, 131, 82, 146, 188, 17, 142, 178, 190, 110, 243, 102, 191, 202, 150, 184, 62, 56, 152, 23, 191, 244, 169, 135, 190, 95, 213, 224, 61, 249, 40, 185, 62, 233, 17, 210, 190, 58, 27, 236, 190, 58, 198, 96, 62, 43, 29, 219, 190, 153, 57, 85, 189, 225, 6, 27, 190, 148, 65, 32, 189, 64, 201, 23, 63, 31, 89, 15, 185, 187, 31, 86, 190, 58, 71, 0, 189, 193, 237, 84, 191, 54, 228, 156, 62, 72, 64, 89, 62, 85, 84, 184, 190, 217, 51, 148, 189, 112, 187, 119, 63, 247, 85, 192, 62, 17, 149, 181, 62, 61, 150, 231, 62, 97, 178, 146, 62, 115, 68, 184, 190, 185, 70, 27, 62, 149, 224, 15, 63, 239, 168, 181, 190, 161, 183, 29, 62, 111, 130, 227, 61, 124, 156, 162, 62, 194, 91, 18, 63, 49, 161, 69, 190, 136, 152, 192, 62, 211, 9, 50, 191, 216, 149, 161, 190, 113, 41, 200, 190, 253, 27, 234, 190, 202, 32, 8, 62, 231, 217, 248, 62, 190, 108, 214, 190, 104, 12, 58, 63, 158, 178, 247, 190, 40, 99, 239, 62, 243, 17, 241, 190, 98, 202, 237, 62, 152, 106, 194, 190, 222, 243, 80, 61, 250, 14, 210, 62, 153, 209, 216, 190, 106, 146, 201, 62, 177, 239, 101, 62, 183, 162, 99, 190, 43, 127, 205, 62, 193, 95, 41, 190, 117, 92, 17, 190, 103, 174, 212, 190, 199, 64, 91, 63, 117, 52, 238, 189, 237, 31, 76, 190, 130, 253, 163, 62, 57, 154, 15, 190, 92, 86, 128, 188, 103, 227, 245, 189, 140, 138, 88, 190, 89, 46, 146, 62, 159, 254, 221, 61, 165, 7, 85, 62, 22, 201, 96, 189, 252, 183, 64, 189, 6, 136, 158, 189, 100, 38, 105, 61, 146, 40, 233, 186, 16, 173, 64, 190, 127, 42, 100, 61, 111, 203, 15, 189, 216, 198, 106, 62, 48, 192, 211, 188, 158, 219, 94, 190, 83, 193, 82, 62, 204, 184, 35, 62, 164, 4, 128, 190, 162, 130, 113, 188, 232, 29, 70, 62, 65, 223, 133, 189, 79, 149, 101, 188, 16, 151, 225, 62, 98, 74, 197, 62, 150, 153, 221, 190, 244, 207, 157, 189, 152, 48, 25, 188, 70, 240, 21, 189, 189, 25, 25, 190, 19, 212, 95, 61, 162, 204, 150, 190, 234, 93, 134, 190, 148, 204, 225, 189, 36, 44, 172, 62, 222, 169, 221, 189, 198, 190, 13, 190, 79, 83, 72, 62, 25, 89, 201, 188, 132, 106, 191, 61, 176, 108, 147, 62, 54, 3, 171, 60, 22, 27, 154, 60, 164, 10, 12, 190, 129, 155, 207, 61, 26, 61, 244, 189, 5, 187, 18, 63, 64, 180, 231, 61, 8, 239, 106, 189, 226, 83, 16, 190, 16, 22, 149, 61, 111, 178, 160, 190, 158, 137, 105, 62, 179, 37, 9, 189, 144, 85, 246, 189, 178, 136, 251, 61, 99, 3, 108, 61, 254, 52, 177, 62, 158, 210, 207, 62, 156, 47, 86, 190, 88, 179, 100, 189, 130, 112, 163, 59, 215, 183, 168, 189, 91, 32, 226, 62, 99, 177, 254, 190, 98, 119, 168, 190, 251, 23, 190, 62, 187, 157, 229, 62, 171, 70, 29, 189, 117, 70, 181, 190, 101, 138, 232, 61, 145, 174, 13, 191, 235, 136, 51, 188, 32, 0, 186, 187, 16, 94, 216, 59, 173, 85, 0, 63, 246, 236, 128, 60, 67, 158, 66, 190, 130, 2, 184, 189, 232, 235, 234, 189, 183, 60, 55, 62, 140, 216, 54, 62, 103, 161, 141, 190, 243, 57, 59, 190, 73, 27, 239, 61, 52, 249, 250, 61, 10, 131, 151, 62, 199, 201, 50, 63, 163, 209, 114, 63, 8, 163, 25, 189, 193, 132, 50, 61, 88, 71, 33, 63, 235, 33, 98, 190, 205, 230, 118, 190, 201, 147, 77, 62, 29, 120, 58, 62, 221, 93, 237, 62, 105, 234, 32, 190, 248, 141, 28, 63, 50, 242, 0, 62, 175, 50, 220, 189, 75, 234, 141, 62, 201, 133, 101, 62, 38, 45, 177, 61, 206, 3, 1, 61, 253, 121, 243, 60, 10, 70, 88, 190, 107, 239, 229, 190, 209, 232, 30, 62, 157, 208, 229, 190, 45, 86, 101, 63, 124, 159, 62, 62, 42, 242, 130, 61, 194, 255, 21, 191, 28, 90, 138, 60, 253, 52, 188, 61, 65, 155, 220, 186, 158, 46, 39, 62, 9, 75, 61, 63, 228, 215, 203, 62, 59, 146, 26, 190, 22, 255, 94, 190, 230, 29, 210, 62, 194, 142, 240, 190, 210, 39, 166, 190, 254, 1, 58, 62, 122, 7, 42, 190, 232, 70, 0, 63, 71, 107, 148, 190, 167, 152, 252, 189, 76, 250, 162, 62, 85, 64, 79, 60, 75, 14, 225, 189, 66, 67, 59, 190, 146, 101, 146, 190, 109, 152, 175, 189, 205, 6, 137, 62, 118, 36, 178, 190, 98, 34, 109, 62, 34, 242, 77, 62, 241, 163, 24, 62, 181, 28, 236, 61, 106, 97, 33, 187, 116, 222, 152, 190, 80, 24, 218, 190, 189, 217, 134, 62, 109, 125, 166, 190, 98, 74, 3, 191, 112, 63, 145, 62, 174, 219, 62, 190, 144, 101, 11, 61, 119, 160, 60, 61, 127, 231, 10, 61, 81, 147, 181, 189, 213, 6, 136, 190, 123, 248, 147, 62, 51, 70, 151, 190, 37, 222, 188, 59, 123, 85, 152, 62, 11, 154, 186, 190, 202, 146, 110, 62, 116, 45, 85, 190, 179, 64, 114, 59, 133, 250, 243, 190, 187, 229, 43, 190, 173, 249, 218, 189, 52, 155, 225, 190, 36, 204, 17, 62, 160, 225, 210, 62, 52, 80, 10, 188, 101, 178, 35, 63, 231, 0, 62, 190, 229, 176, 208, 62, 114, 238, 126, 190, 109, 1, 218, 61, 67, 213, 124, 60, 195, 129, 194, 190, 100, 33, 196, 189, 117, 175, 54, 60, 193, 4, 218, 190, 33, 109, 188, 62, 101, 195, 186, 190, 94, 121, 67, 62, 131, 48, 135, 62, 86, 48, 173, 190, 204, 212, 10, 63, 81, 241, 38, 63, 1, 50, 95, 190, 159, 226, 255, 189, 134, 10, 150, 190, 190, 139, 25, 189, 65, 169, 154, 61, 101, 173, 100, 190, 196, 134, 132, 190, 5, 91, 74, 62, 90, 244, 103, 62, 7, 212, 184, 190, 73, 207, 175, 189, 116, 127, 205, 61, 56, 120, 195, 190, 26, 164, 50, 62, 239, 106, 131, 61, 114, 135, 67, 190, 168, 135, 97, 62, 47, 121, 23, 61, 96, 185, 3, 190, 9, 98, 31, 62, 228, 139, 148, 61, 32, 56, 188, 189, 195, 93, 29, 190, 3, 222, 208, 189, 15, 209, 118, 61, 131, 11, 34, 62, 211, 242, 254, 62, 235, 82, 136, 60, 151, 2, 240, 189, 252, 238, 135, 190, 116, 150, 128, 190, 3, 93, 124, 187, 138, 72, 156, 62, 200, 222, 114, 189, 250, 120, 76, 190, 51, 228, 62, 189, 50, 205, 193, 62, 222, 131, 197, 62, 227, 220, 97, 190, 210, 128, 3, 62, 241, 162, 116, 190, 243, 6, 67, 61, 161, 85, 38, 61, 174, 63, 40, 61, 105, 180, 70, 190, 222, 164, 139, 60, 185, 6, 184, 189, 128, 108, 193, 61, 65, 204, 173, 190, 148, 159, 7, 62, 26, 199, 153, 190, 253, 89, 130, 190, 158, 237, 196, 190, 66, 51, 206, 189, 182, 147, 89, 62, 81, 63, 19, 191, 215, 166, 158, 62, 239, 110, 146, 62, 198, 248, 195, 189, 69, 238, 136, 62, 185, 6, 231, 60, 18, 43, 135, 60, 87, 85, 140, 190, 245, 94, 212, 62, 192, 226, 30, 191, 215, 202, 157, 190, 157, 185, 16, 63, 26, 114, 145, 189, 158, 24, 129, 63, 161, 126, 94, 191, 78, 193, 176, 190, 34, 146, 53, 63, 12, 131, 0, 63, 200, 83, 74, 63, 90, 189, 55, 191, 40, 232, 139, 62, 33, 122, 128, 191, 208, 9, 191, 62, 231, 206, 119, 191, 14, 84, 58, 190, 153, 78, 42, 63, 4, 157, 170, 189, 24, 47, 222, 190, 119, 35, 175, 62, 181, 68, 121, 190, 163, 99, 139, 62, 21, 75, 195, 62, 239, 55, 72, 191, 99, 93, 58, 191, 195, 38, 149, 62, 36, 116, 12, 191, 4, 225, 21, 63, 178, 29, 196, 62, 105, 41, 43, 63, 214, 85, 46, 190, 5, 69, 170, 190, 42, 203, 48, 63, 59, 1, 51, 191, 10, 214, 157, 190, 121, 238, 133, 62, 238, 222, 184, 62, 45, 136, 234, 62, 104, 217, 30, 62, 82, 80, 56, 63, 46, 222, 178, 190, 193, 170, 190, 189, 208, 195, 173, 62, 245, 20, 143, 190, 72, 239, 158, 62, 54, 250, 209, 189, 192, 81, 6, 63, 26, 91, 190, 190, 139, 140, 50, 191, 35, 125, 129, 63, 210, 201, 27, 191, 252, 94, 57, 63, 246, 167, 163, 62, 143, 58, 5, 191, 205, 54, 212, 190, 197, 138, 102, 63, 219, 224, 176, 62, 216, 136, 210, 190, 62, 186, 191, 62, 145, 122, 169, 62, 239, 177, 18, 63, 203, 31, 251, 190, 193, 218, 30, 191, 78, 38, 18, 63, 33, 95, 127, 190, 155, 52, 208, 187, 99, 241, 17, 62, 108, 68, 207, 190, 198, 147, 213, 188, 201, 28, 137, 190, 135, 47, 87, 191, 52, 210, 59, 62, 44, 28, 250, 62, 36, 52, 187, 62, 1, 197, 145, 190, 211, 68, 185, 61, 138, 168, 152, 190, 132, 145, 48, 62, 109, 173, 111, 61, 77, 225, 110, 190, 104, 206, 175, 62, 47, 241, 22, 189, 58, 78, 88, 62, 191, 50, 143, 188, 177, 209, 148, 190, 54, 216, 210, 62, 151, 232, 161, 190, 225, 253, 113, 190, 115, 210, 175, 60, 37, 17, 20, 62, 77, 244, 62, 190, 183, 181, 130, 61, 93, 63, 186, 62, 191, 162, 171, 62, 114, 117, 228, 189, 192, 243, 15, 62, 151, 41, 228, 62, 99, 93, 75, 61, 33, 232, 22, 190, 107, 58, 189, 189, 108, 226, 147, 190, 92, 57, 155, 62, 238, 34, 14, 62, 89, 49, 241, 62, 163, 42, 214, 188, 112, 8, 186, 190, 161, 12, 235, 62, 223, 166, 156, 62, 143, 69, 56, 190, 153, 154, 130, 61, 242, 91, 149, 62, 73, 22, 151, 189, 200, 96, 245, 190, 206, 228, 143, 60, 30, 80, 198, 190, 29, 167, 152, 62, 204, 9, 116, 190, 150, 253, 226, 61, 236, 133, 13, 190, 135, 74, 163, 62, 93, 214, 154, 189, 150, 243, 13, 62, 210, 216, 241, 61, 230, 245, 169, 61, 184, 82, 49, 62, 189, 229, 131, 62, 28, 126, 161, 62, 105, 83, 45, 62, 251, 180, 109, 188, 16, 176, 198, 61, 0, 64, 104, 62, 215, 24, 116, 61, 176, 9, 129, 189, 126, 110, 27, 190, 173, 235, 138, 61, 60, 22, 214, 188, 156, 49, 14, 62, 30, 26, 57, 191, 9, 152, 64, 190, 19, 32, 163, 62, 28, 70, 111, 190, 45, 63, 80, 60, 255, 167, 213, 188, 225, 252, 193, 189, 196, 159, 136, 62, 253, 10, 129, 190, 244, 137, 156, 190, 249, 237, 13, 61, 210, 206, 232, 61, 7, 15, 94, 62, 75, 230, 231, 62, 245, 110, 90, 62, 107, 162, 181, 61, 21, 17, 59, 190, 196, 173, 33, 63, 44, 251, 40, 61, 105, 90, 236, 62, 172, 109, 158, 62, 112, 84, 1, 61, 20, 23, 140, 58, 110, 72, 56, 62, 42, 31, 136, 62, 174, 130, 59, 62, 113, 177, 209, 188, 172, 22, 150, 62, 252, 34, 118, 61, 32, 63, 29, 188, 181, 84, 154, 62, 118, 195, 225, 188, 108, 216, 106, 62, 198, 223, 31, 190, 248, 206, 241, 61, 165, 84, 62, 62, 184, 1, 108, 188, 42, 143, 3, 191, 204, 130, 13, 62, 130, 198, 59, 190, 90, 167, 10, 188, 100, 194, 29, 190, 209, 93, 30, 62, 209, 38, 196, 190, 225, 90, 95, 61, 185, 213, 70, 62, 7, 34, 36, 191, 202, 74, 158, 62, 197, 74, 141, 189, 167, 253, 93, 62, 121, 28, 143, 188, 55, 131, 81, 190, 233, 208, 236, 61, 231, 221, 28, 191, 174, 254, 75, 61, 25, 67, 148, 190, 60, 234, 74, 189, 215, 47, 91, 190, 75, 13, 52, 190, 56, 12, 251, 190, 124, 53, 115, 190, 162, 95, 92, 190, 12, 45, 206, 61, 33, 155, 159, 62, 217, 57, 62, 190, 0, 139, 167, 190, 59, 227, 41, 61, 203, 206, 121, 190, 206, 30, 209, 189, 177, 227, 69, 61, 143, 64, 70, 190, 188, 196, 226, 61, 29, 202, 100, 61, 208, 187, 143, 62, 40, 75, 172, 188, 202, 3, 160, 189, 39, 175, 94, 61, 168, 184, 176, 189, 121, 93, 238, 189, 190, 232, 239, 61, 151, 226, 153, 62, 36, 144, 157, 62, 43, 70, 179, 61, 118, 180, 12, 189, 12, 73, 12, 190, 228, 81, 177, 189, 140, 160, 230, 61, 161, 252, 203, 62, 204, 122, 21, 60, 2, 73, 58, 62, 212, 26, 2, 190, 111, 17, 5, 190, 146, 101, 25, 63, 35, 130, 44, 190, 222, 199, 165, 62, 3, 166, 58, 189, 35, 168, 157, 190, 123, 192, 130, 189, 82, 67, 228, 187, 138, 189, 1, 187, 201, 207, 110, 59, 71, 27, 207, 61, 134, 106, 7, 189, 71, 64, 126, 190, 72, 198, 186, 60, 109, 232, 34, 190, 47, 115, 87, 190, 145, 111, 247, 190, 206, 208, 181, 61, 105, 78, 122, 62, 171, 241, 241, 190, 12, 139, 97, 190, 221, 141, 60, 62, 159, 16, 145, 61, 242, 49, 237, 62, 243, 224, 98, 62, 138, 243, 114, 187, 132, 15, 108, 62, 17, 144, 136, 61, 14, 61, 184, 61, 52, 73, 84, 62, 184, 28, 182, 189, 76, 158, 154, 62, 142, 147, 225, 190, 153, 218, 171, 61, 98, 140, 102, 190, 58, 162, 228, 189, 192, 157, 129, 188, 2, 238, 199, 190, 138, 45, 11, 62, 191, 173, 109, 190, 88, 199, 39, 62, 91, 102, 148, 190, 126, 211, 124, 62, 79, 193, 20, 190, 27, 222, 61, 190, 192, 112, 212, 188, 23, 143, 60, 189, 48, 104, 158, 61, 139, 228, 176, 62, 217, 120, 219, 62, 152, 52, 107, 190, 61, 80, 120, 188, 46, 233, 138, 62, 244, 69, 207, 190, 157, 203, 21, 63, 109, 8, 164, 189, 12, 242, 37, 62, 200, 251, 244, 61, 242, 179, 146, 60, 59, 173, 209, 62, 67, 18, 92, 190, 14, 172, 156, 62, 33, 179, 247, 61, 97, 50, 198, 190, 48, 13, 75, 190, 33, 123, 68, 190, 10, 15, 200, 188, 145, 166, 100, 189, 157, 139, 142, 62, 213, 16, 194, 61, 85, 194, 159, 62, 95, 3, 201, 62, 46, 232, 151, 190, 166, 165, 210, 190, 99, 107, 35, 189, 130, 111, 22, 190, 4, 169, 133, 62, 119, 71, 137, 190, 33, 254, 35, 62, 151, 129, 6, 61, 25, 189, 251, 190, 222, 2, 222, 62, 64, 186, 57, 62, 78, 131, 236, 190, 50, 78, 15, 190, 98, 126, 160, 190, 73, 46, 178, 62, 205, 167, 17, 62, 35, 13, 85, 62, 0, 4, 236, 62, 99, 165, 168, 62, 109, 32, 249, 188, 206, 63, 240, 189, 34, 15, 218, 60, 111, 254, 156, 190, 90, 122, 36, 62, 5, 246, 158, 190, 243, 202, 27, 62, 52, 235, 192, 188, 125, 107, 131, 190, 143, 162, 68, 62, 114, 206, 22, 191, 86, 46, 187, 61, 90, 42, 18, 190, 57, 221, 56, 61, 168, 195, 96, 60, 166, 156, 16, 60, 224, 111, 211, 189, 163, 52, 234, 188, 42, 79, 118, 190, 69, 213, 122, 190, 250, 203, 102, 62, 159, 55, 9, 62, 74, 91, 134, 60, 37, 92, 213, 61, 178, 198, 132, 190, 249, 249, 141, 189, 15, 132, 212, 189, 248, 173, 74, 63, 75, 192, 52, 62, 46, 215, 5, 62, 236, 145, 58, 190, 181, 245, 64, 61, 41, 70, 38, 61, 240, 37, 245, 61, 171, 198, 6, 61, 122, 44, 15, 62, 103, 121, 122, 189, 50, 171, 59, 62, 92, 157, 208, 62, 12, 145, 0, 191, 20, 162, 122, 60, 231, 211, 24, 61, 100, 118, 184, 189, 133, 11, 184, 188, 106, 72, 36, 62, 162, 132, 197, 189, 243, 183, 165, 61, 191, 182, 170, 190, 21, 124, 178, 189, 108, 27, 168, 189, 190, 111, 245, 187, 231, 4, 180, 61, 206, 176, 68, 190, 118, 230, 203, 190, 38, 19, 79, 189, 39, 1, 174, 62, 220, 195, 87, 191, 135, 162, 152, 60, 98, 132, 126, 190, 84, 39, 188, 60, 205, 218, 74, 62, 35, 210, 215, 188, 191, 0, 190, 189, 176, 166, 230, 189, 142, 231, 163, 61, 27, 4, 37, 190, 138, 196, 119, 62, 23, 212, 110, 190, 153, 182, 49, 62, 129, 183, 151, 190, 110, 200, 188, 60, 25, 33, 47, 190, 156, 21, 156, 190, 207, 176, 217, 61, 19, 250, 67, 191, 0, 140, 35, 188, 175, 14, 62, 190, 200, 99, 227, 60, 194, 85, 40, 188, 254, 141, 44, 189, 191, 29, 119, 190, 149, 20, 4, 188, 161, 135, 187, 189, 18, 238, 0, 191, 184, 15, 114, 62, 202, 28, 180, 61, 189, 42, 169, 62, 78, 29, 4, 62, 171, 40, 235, 189, 247, 209, 37, 62, 196, 126, 92, 190, 159, 5, 97, 63, 80, 211, 195, 62, 96, 18, 101, 62, 206, 48, 216, 61, 15, 16, 225, 61, 247, 225, 216, 60, 143, 82, 15, 60, 142, 220, 199, 61, 164, 49, 92, 62, 66, 113, 74, 190, 174, 82, 148, 62, 18, 169, 20, 62, 251, 31, 56, 191, 246, 205, 180, 189, 231, 234, 82, 190, 146, 214, 167, 62, 43, 155, 28, 190, 218, 205, 57, 62, 34, 83, 43, 62, 119, 173, 184, 188, 162, 218, 242, 190, 136, 116, 212, 61, 117, 63, 16, 189, 49, 81, 196, 190, 111, 117, 130, 61, 52, 188, 127, 62, 189, 10, 74, 191, 100, 77, 139, 189, 97, 92, 240, 62, 166, 15, 34, 191, 142, 170, 166, 61, 103, 37, 178, 190, 127, 232, 44, 59, 143, 38, 231, 62, 247, 216, 242, 189, 47, 115, 187, 61, 16, 111, 163, 61, 72, 237, 34, 189, 99, 193, 7, 189, 240, 252, 242, 189, 234, 20, 36, 62, 83, 241, 68, 62, 129, 127, 149, 190, 114, 237, 133, 60, 173, 5, 114, 62, 112, 62, 228, 188, 76, 64, 253, 188, 33, 128, 178, 190, 155, 237, 24, 190, 70, 181, 216, 60, 67, 76, 117, 189, 183, 205, 25, 62, 90, 51, 61, 61, 214, 110, 117, 59, 149, 31, 43, 62, 60, 10, 11, 190, 233, 69, 180, 187, 111, 60, 134, 61, 151, 177, 228, 61, 33, 110, 78, 61, 246, 171, 13, 63, 204, 239, 192, 189, 215, 129, 123, 189, 151, 93, 12, 190, 253, 201, 175, 62, 4, 0, 108, 60, 250, 208, 25, 62, 94, 192, 210, 188, 51, 129, 238, 189, 250, 162, 151, 189, 186, 211, 85, 62, 115, 31, 180, 61, 26, 148, 248, 61, 151, 71, 14, 190, 170, 202, 118, 61, 156, 112, 169, 62, 64, 20, 248, 190, 206, 178, 172, 61, 98, 251, 109, 190, 151, 83, 173, 189, 249, 13, 240, 189, 49, 151, 136, 187, 73, 255, 168, 62, 145, 175, 67, 62, 185, 250, 118, 190, 159, 238, 100, 62, 192, 0, 143, 61, 202, 75, 151, 61, 190, 176, 165, 61, 65, 238, 13, 189, 175, 48, 235, 190, 70, 252, 39, 190, 194, 124, 159, 62, 55, 106, 194, 190, 100, 255, 20, 190, 177, 14, 73, 61, 232, 159, 35, 189, 134, 89, 250, 62, 253, 40, 122, 190, 93, 227, 15, 189, 147, 52, 47, 190, 116, 130, 85, 189, 216, 236, 115, 190, 24, 62, 90, 189, 110, 112, 182, 190, 224, 217, 206, 189, 170, 161, 144, 190, 119, 241, 67, 190, 245, 31, 124, 190, 54, 71, 146, 61, 165, 0, 139, 62, 194, 137, 141, 190, 114, 0, 158, 189, 217, 105, 82, 190, 167, 89, 90, 189, 147, 59, 53, 62, 208, 213, 40, 187, 240, 240, 177, 190, 154, 126, 252, 59, 116, 240, 246, 58, 26, 219, 148, 62, 124, 217, 5, 62, 231, 124, 46, 189, 103, 132, 237, 61, 253, 74, 38, 190, 63, 107, 214, 189, 222, 59, 158, 189, 184, 35, 193, 188, 233, 182, 197, 62, 192, 94, 114, 61, 50, 208, 191, 62, 230, 247, 240, 61, 196, 36, 137, 189, 78, 12, 254, 61, 207, 51, 98, 62, 68, 76, 156, 189, 169, 169, 84, 62, 144, 33, 156, 61, 37, 221, 163, 189, 218, 120, 21, 63, 58, 237, 148, 189, 15, 25, 39, 62, 123, 129, 27, 190, 131, 8, 62, 190, 154, 204, 8, 189, 174, 75, 219, 188, 154, 49, 1, 189, 190, 202, 47, 62, 236, 112, 76, 190, 141, 105, 144, 60, 137, 65, 94, 190, 26, 102, 203, 61, 231, 213, 79, 189, 60, 44, 144, 61, 23, 240, 225, 190, 115, 146, 24, 188, 135, 147, 102, 62, 118, 173, 175, 190, 199, 64, 216, 188, 112, 233, 143, 61, 137, 255, 212, 60, 47, 23, 224, 62, 150, 244, 206, 61, 33, 141, 180, 61, 169, 85, 137, 62, 188, 87, 226, 61, 89, 2, 39, 62, 96, 115, 188, 188, 7, 52, 67, 61, 129, 175, 132, 190, 178, 249, 8, 189, 255, 58, 181, 190, 27, 245, 61, 61, 235, 13, 153, 62, 194, 154, 236, 188, 255, 157, 210, 190, 93, 132, 185, 187, 144, 14, 41, 189, 97, 174, 38, 189, 237, 244, 202, 189, 222, 54, 50, 62, 114, 12, 59, 62, 201, 177, 107, 61, 66, 145, 160, 62, 15, 231, 2, 63, 234, 216, 147, 190, 237, 237, 9, 191, 241, 209, 244, 188, 36, 247, 156, 61, 146, 112, 191, 61, 73, 74, 27, 62, 158, 3, 230, 62, 18, 116, 192, 62, 95, 190, 176, 190, 172, 14, 138, 60, 202, 53, 253, 61, 229, 173, 58, 190, 163, 234, 80, 62, 124, 21, 34, 61, 1, 3, 242, 61, 150, 140, 223, 61, 109, 225, 154, 61, 247, 178, 189, 190, 163, 169, 28, 189, 147, 239, 24, 63, 248, 27, 20, 190, 147, 97, 53, 62, 160, 160, 239, 190, 147, 76, 212, 62, 236, 110, 21, 189, 127, 110, 155, 189, 247, 169, 64, 190, 30, 27, 50, 61, 141, 185, 22, 190, 60, 255, 17, 190, 232, 162, 18, 61, 100, 254, 161, 188, 86, 46, 146, 61, 100, 121, 41, 60, 215, 246, 159, 62, 243, 204, 162, 190, 233, 12, 216, 189, 205, 122, 184, 190, 76, 22, 161, 61, 99, 63, 167, 61, 227, 96, 206, 190, 95, 242, 158, 62, 50, 216, 8, 62, 234, 43, 71, 62, 28, 177, 177, 62, 106, 254, 34, 190, 191, 85, 79, 190, 105, 82, 70, 190, 4, 137, 160, 190, 113, 220, 123, 190, 191, 229, 200, 190, 89, 143, 249, 189, 48, 125, 153, 62, 159, 108, 44, 62, 15, 29, 132, 190, 198, 242, 92, 190, 191, 247, 10, 189, 243, 243, 72, 190, 82, 182, 7, 62, 20, 64, 182, 189, 102, 53, 218, 189, 250, 202, 14, 62, 176, 217, 8, 62, 128, 255, 25, 62, 191, 225, 25, 187, 225, 129, 177, 190, 146, 153, 216, 60, 114, 193, 139, 61, 140, 30, 129, 190, 48, 200, 244, 188, 217, 4, 141, 62, 86, 155, 188, 62, 89, 225, 20, 62, 49, 34, 127, 62, 126, 64, 233, 60, 233, 217, 149, 190, 157, 91, 90, 189, 167, 57, 132, 62, 93, 124, 129, 190, 8, 16, 176, 61, 228, 6, 25, 62, 240, 37, 36, 190, 158, 53, 185, 62, 86, 128, 165, 60, 50, 155, 233, 62, 255, 210, 78, 190, 34, 49, 151, 190, 227, 22, 64, 190, 107, 63, 86, 190, 190, 245, 248, 61, 75, 99, 224, 61, 27, 201, 18, 190, 72, 254, 134, 189, 181, 64, 105, 190, 189, 30, 47, 62, 52, 161, 117, 190, 87, 188, 29, 61, 184, 17, 188, 190, 189, 95, 40, 189, 137, 43, 106, 62, 247, 212, 183, 190, 86, 9, 45, 190, 252, 29, 194, 62, 146, 235, 106, 190, 187, 119, 84, 59, 92, 53, 139, 61, 23, 205, 66, 190, 216, 255, 203, 189, 34, 88, 126, 62, 123, 65, 70, 190, 113, 89, 70, 60, 110, 203, 213, 188, 74, 40, 74, 189, 176, 116, 30, 189, 32, 41, 196, 190, 63, 231, 33, 190, 197, 14, 58, 62, 203, 50, 207, 62, 93, 46, 177, 190, 231, 126, 145, 190, 70, 189, 143, 62, 178, 181, 219, 190, 151, 164, 8, 190, 176, 157, 141, 61, 77, 189, 41, 190, 23, 1, 149, 62, 144, 184, 10, 190, 232, 65, 149, 60, 61, 3, 55, 189, 95, 224, 105, 189, 235, 41, 218, 62, 255, 27, 145, 190, 143, 101, 242, 188, 207, 254, 34, 190, 214, 185, 233, 61, 89, 127, 151, 62, 242, 180, 36, 62, 169, 213, 168, 62, 43, 124, 226, 62, 45, 99, 196, 60, 118, 105, 244, 61, 42, 147, 162, 62, 128, 140, 211, 188, 179, 241, 124, 60, 148, 255, 69, 190, 181, 87, 23, 62, 61, 41, 149, 62, 89, 193, 27, 63, 45, 211, 179, 62, 36, 155, 17, 190, 226, 172, 69, 190, 210, 215, 91, 189, 250, 104, 133, 187, 118, 223, 70, 190, 27, 223, 134, 188, 243, 76, 55, 190, 16, 79, 174, 62, 54, 200, 231, 190, 47, 181, 95, 62, 51, 58, 220, 190, 161, 88, 247, 62, 24, 124, 94, 190, 44, 231, 68, 61, 206, 251, 127, 62, 144, 130, 150, 190, 117, 180, 187, 60, 149, 3, 75, 61, 198, 109, 210, 186, 102, 158, 208, 189, 3, 15, 138, 189, 122, 155, 45, 61, 229, 156, 159, 190, 226, 182, 20, 62, 86, 20, 167, 190, 218, 72, 138, 62, 162, 62, 246, 62, 66, 112, 152, 190, 7, 23, 21, 63, 228, 64, 221, 190, 127, 223, 202, 190, 198, 176, 142, 63, 201, 156, 188, 62, 156, 215, 160, 62, 53, 140, 90, 190, 161, 214, 208, 61, 208, 148, 189, 190, 66, 52, 198, 60, 174, 107, 95, 189, 36, 12, 172, 188, 91, 145, 145, 62, 131, 43, 208, 189, 171, 89, 133, 190, 32, 127, 252, 61, 76, 221, 132, 190, 7, 47, 22, 63, 60, 137, 6, 63, 72, 176, 78, 191, 240, 242, 229, 189, 24, 99, 254, 62, 102, 84, 134, 190, 205, 141, 13, 63, 173, 31, 220, 62, 76, 17, 68, 63, 234, 38, 3, 191, 118, 52, 13, 62, 252, 203, 254, 61, 33, 241, 88, 62, 244, 8, 238, 189, 20, 117, 124, 189, 239, 131, 190, 189, 251, 44, 37, 190, 23, 61, 165, 191, 52, 15, 141, 62, 139, 195, 27, 189, 19, 108, 112, 190, 221, 40, 37, 63, 9, 27, 66, 61, 132, 19, 160, 62, 169, 21, 218, 61, 21, 188, 207, 62, 95, 56, 34, 190, 137, 235, 148, 190, 92, 202, 9, 63, 45, 190, 150, 190, 252, 159, 53, 63, 250, 47, 6, 62, 201, 129, 118, 62, 215, 159, 9, 191, 21, 57, 188, 61, 91, 163, 184, 188, 226, 129, 65, 190, 202, 49, 169, 62, 147, 14, 185, 62, 63, 157, 58, 63, 119, 122, 182, 62, 206, 221, 10, 62, 24, 169, 148, 63, 13, 78, 22, 190, 143, 56, 153, 190, 49, 106, 108, 190, 216, 10, 119, 191, 59, 173, 87, 62, 212, 201, 190, 190, 141, 93, 244, 190, 102, 97, 165, 62, 131, 226, 117, 62, 7, 74, 131, 62, 113, 206, 87, 190, 249, 36, 10, 190, 77, 98, 185, 190, 246, 35, 136, 60, 25, 198, 214, 189, 211, 83, 157, 189, 36, 98, 170, 62, 69, 25, 239, 185, 218, 34, 39, 63, 249, 183, 22, 191, 43, 94, 139, 191, 40, 184, 183, 62, 102, 184, 46, 190, 133, 130, 142, 190, 245, 245, 145, 190, 34, 64, 39, 63, 164, 31, 49, 190, 224, 221, 79, 190, 61, 130, 243, 62, 45, 81, 111, 62, 74, 136, 44, 190, 40, 216, 172, 61, 43, 163, 230, 62, 146, 134, 19, 61, 100, 152, 130, 190, 200, 34, 29, 62, 116, 82, 163, 190, 208, 56, 202, 62, 127, 80, 214, 61, 180, 78, 18, 63, 80, 231, 78, 189, 167, 43, 73, 191, 252, 96, 86, 62, 70, 205, 134, 190, 65, 128, 73, 190, 44, 255, 224, 62, 17, 178, 153, 62, 220, 70, 248, 189, 0, 252, 178, 190, 233, 231, 111, 62, 99, 125, 157, 190, 74, 228, 169, 62, 144, 205, 221, 188, 184, 220, 70, 62, 117, 108, 23, 190, 59, 8, 211, 61, 199, 165, 139, 190, 22, 50, 131, 62, 53, 111, 252, 189, 222, 238, 171, 61, 77, 144, 67, 62, 131, 251, 187, 61, 70, 186, 75, 62, 226, 8, 39, 63, 133, 135, 128, 60, 65, 128, 43, 190, 40, 74, 72, 61, 182, 66, 108, 191, 33, 168, 151, 62, 28, 39, 18, 189, 73, 19, 74, 190, 57, 139, 6, 63, 53, 81, 88, 190, 122, 182, 140, 62, 54, 29, 6, 61, 148, 198, 144, 190, 203, 162, 9, 62, 136, 145, 105, 189, 113, 46, 53, 189, 236, 252, 77, 61, 121, 193, 127, 190, 81, 132, 86, 62, 122, 166, 136, 63, 247, 66, 16, 190, 194, 162, 116, 191, 186, 31, 16, 189, 52, 64, 192, 188, 129, 120, 2, 62, 49, 252, 221, 190, 80, 33, 92, 63, 233, 33, 48, 190, 172, 17, 239, 190, 44, 106, 233, 190, 90, 132, 210, 190, 247, 242, 108, 190, 100, 220, 99, 61, 173, 144, 34, 58, 64, 54, 78, 190, 94, 87, 138, 190, 22, 166, 158, 62, 247, 155, 198, 190, 90, 95, 185, 62, 88, 113, 204, 62, 154, 234, 145, 61, 94, 221, 97, 62, 107, 188, 107, 191, 195, 205, 8, 63, 19, 154, 212, 189, 170, 132, 158, 188, 58, 43, 195, 187, 126, 215, 192, 62, 63, 211, 228, 60, 11, 16, 199, 61, 176, 248, 184, 62, 155, 94, 154, 61, 186, 58, 255, 190, 242, 189, 117, 62, 122, 195, 7, 62, 195, 176, 6, 191, 53, 211, 93, 62, 32, 147, 45, 191, 166, 32, 194, 62, 78, 190, 242, 189, 242, 250, 242, 189, 44, 158, 179, 62, 86, 35, 133, 62, 88, 139, 247, 62, 188, 193, 226, 62, 252, 184, 82, 188, 50, 105, 156, 190, 93, 105, 166, 61, 68, 111, 34, 191, 53, 224, 232, 62, 42, 111, 233, 190, 170, 106, 33, 190, 203, 154, 163, 62, 65, 20, 146, 61, 161, 43, 165, 62, 145, 126, 134, 190, 200, 149, 145, 189, 35, 164, 70, 190, 41, 98, 73, 62, 245, 132, 28, 190, 125, 51, 81, 190, 24, 114, 52, 62, 34, 216, 13, 60, 128, 94, 81, 190, 65, 40, 170, 61, 216, 142, 84, 191, 60, 212, 78, 188, 147, 106, 14, 191, 25, 38, 11, 191, 16, 139, 196, 190, 220, 3, 73, 63, 76, 177, 14, 191, 73, 171, 132, 189, 224, 4, 93, 189, 174, 154, 102, 61, 45, 81, 218, 190, 252, 87, 11, 60, 44, 244, 73, 62, 140, 205, 141, 190, 60, 48, 211, 189, 210, 169, 130, 62, 71, 159, 55, 61, 204, 157, 74, 62, 7, 186, 241, 62, 253, 208, 117, 62, 74, 226, 224, 190, 159, 57, 68, 191, 187, 85, 168, 61, 47, 122, 222, 190, 209, 71, 160, 190, 103, 149, 151, 62, 5, 47, 3, 62, 150, 203, 54, 62, 45, 47, 130, 190, 239, 71, 228, 62, 152, 172, 83, 190, 129, 162, 145, 188, 227, 101, 239, 60, 206, 46, 107, 189, 21, 46, 0, 190, 214, 42, 229, 62, 177, 136, 3, 62, 207, 206, 90, 62, 31, 225, 37, 190, 5, 84, 124, 189, 80, 74, 73, 62, 25, 77, 16, 190, 244, 98, 43, 61, 61, 121, 46, 63, 132, 106, 16, 190, 195, 64, 217, 190, 44, 55, 119, 62, 199, 4, 70, 189, 220, 80, 140, 62, 103, 157, 86, 190, 14, 245, 222, 190, 101, 222, 180, 62, 241, 48, 31, 62, 197, 73, 204, 62, 149, 121, 152, 190, 230, 74, 78, 61, 213, 199, 171, 190, 54, 18, 149, 62, 31, 96, 210, 190, 114, 24, 138, 60, 218, 60, 191, 62, 80, 9, 103, 60, 180, 139, 136, 189, 234, 184, 167, 59, 221, 103, 1, 190, 23, 171, 131, 189, 211, 52, 47, 189, 239, 170, 172, 190, 234, 80, 167, 190, 78, 65, 179, 61, 156, 136, 140, 190, 151, 106, 6, 62, 155, 156, 22, 63, 164, 158, 2, 63, 211, 34, 126, 189, 234, 49, 163, 190, 77, 15, 5, 62, 30, 170, 97, 190, 144, 218, 248, 189, 164, 130, 81, 61, 57, 42, 31, 190, 89, 142, 157, 187, 162, 252, 218, 189, 130, 8, 53, 63, 73, 196, 126, 190, 35, 146, 251, 60, 208, 110, 41, 188, 26, 137, 34, 190, 168, 255, 37, 61, 94, 206, 49, 62, 120, 53, 210, 62, 234, 60, 191, 189, 46, 3, 88, 190, 53, 209, 97, 62, 5, 104, 203, 190, 140, 103, 12, 63, 61, 177, 133, 62, 86, 56, 84, 190, 111, 202, 173, 190, 102, 93, 180, 62, 9, 151, 125, 61, 90, 140, 164, 62, 195, 148, 20, 190, 67, 177, 44, 62, 80, 120, 110, 189, 219, 87, 8, 190, 29, 49, 247, 189, 224, 137, 50, 62, 192, 206, 198, 60, 42, 19, 7, 190, 47, 205, 79, 186, 77, 124, 20, 189, 127, 25, 39, 190, 161, 242, 22, 190, 39, 87, 28, 61, 38, 7, 12, 62, 95, 141, 2, 190, 31, 34, 90, 190, 80, 16, 135, 60, 236, 100, 72, 188, 131, 46, 244, 189, 32, 113, 106, 190, 118, 250, 10, 62, 49, 30, 54, 61, 247, 214, 49, 61, 118, 136, 126, 61, 186, 106, 57, 62, 18, 130, 94, 190, 129, 212, 250, 189, 51, 156, 8, 190, 90, 252, 112, 189, 84, 22, 236, 61, 174, 54, 33, 61, 19, 210, 129, 61, 202, 144, 131, 62, 6, 142, 37, 190, 234, 173, 148, 190, 57, 127, 195, 189, 85, 50, 101, 190, 129, 215, 232, 61, 153, 128, 138, 62, 168, 48, 127, 189, 123, 244, 123, 60, 103, 73, 218, 60, 150, 99, 62, 61, 29, 16, 92, 62, 9, 183, 191, 62, 59, 22, 157, 189, 115, 22, 52, 62, 174, 233, 175, 189, 55, 125, 30, 60, 55, 140, 29, 61, 118, 238, 224, 189, 228, 137, 204, 189, 244, 251, 36, 190, 30, 70, 135, 189, 121, 87, 138, 189, 67, 122, 175, 189, 142, 223, 52, 189, 102, 132, 3, 190, 170, 96, 131, 189, 97, 202, 16, 62, 205, 193, 27, 190, 155, 131, 157, 190, 158, 38, 100, 186, 184, 131, 87, 62, 120, 49, 118, 189, 185, 1, 163, 190, 51, 111, 8, 187, 88, 57, 46, 62, 16, 186, 103, 60, 90, 16, 88, 62, 118, 160, 252, 190, 119, 164, 43, 190, 208, 255, 10, 63, 105, 114, 33, 189, 110, 210, 18, 63, 181, 3, 26, 191, 236, 1, 31, 191, 26, 120, 92, 63, 231, 218, 248, 62, 234, 46, 203, 62, 236, 8, 239, 190, 47, 220, 166, 62, 80, 103, 15, 191, 239, 67, 10, 62, 19, 25, 4, 191, 112, 43, 246, 190, 186, 135, 235, 62, 184, 175, 117, 190, 251, 169, 154, 190, 76, 94, 85, 62, 85, 231, 62, 61, 194, 206, 253, 62, 30, 255, 46, 62, 241, 140, 85, 191, 133, 152, 9, 191, 225, 44, 236, 61, 120, 69, 195, 190, 199, 54, 37, 63, 220, 19, 86, 63, 254, 144, 145, 63, 102, 214, 149, 190, 111, 193, 144, 61, 120, 128, 189, 62, 229, 196, 160, 190, 121, 172, 23, 190, 117, 127, 19, 190, 144, 130, 234, 61, 227, 32, 6, 61, 240, 207, 100, 190, 35, 236, 91, 63, 81, 90, 140, 188, 48, 243, 245, 189, 74, 82, 244, 62, 249, 146, 6, 62, 175, 105, 142, 62, 9, 8, 27, 189, 160, 42, 181, 62, 16, 192, 34, 190, 150, 76, 13, 191, 27, 59, 180, 62, 60, 132, 17, 191, 42, 2, 141, 63, 151, 155, 115, 62, 232, 165, 220, 60, 51, 4, 186, 190, 103, 40, 16, 63, 142, 197, 141, 62, 3, 138, 207, 189, 188, 48, 201, 62, 241, 172, 191, 62, 147, 58, 188, 62, 227, 49, 104, 62, 152, 71, 133, 190, 96, 15, 85, 63, 247, 224, 164, 190, 206, 132, 41, 190, 25, 253, 155, 189, 74, 131, 14, 190, 86, 188, 225, 61, 216, 202, 140, 189, 163, 36, 62, 189, 96, 62, 17, 62, 192, 8, 201, 61, 101, 44, 131, 190, 244, 93, 244, 189, 136, 235, 41, 62, 243, 245, 87, 190, 42, 98, 25, 62, 27, 46, 155, 190, 165, 7, 179, 187, 166, 139, 17, 62, 62, 99, 150, 59, 45, 233, 56, 190, 87, 169, 147, 61, 60, 77, 195, 58, 100, 32, 2, 190, 116, 56, 231, 61, 166, 207, 143, 190, 124, 2, 230, 189, 168, 156, 138, 60, 220, 119, 58, 62, 132, 177, 109, 62, 168, 24, 40, 190, 91, 68, 186, 59, 75, 132, 150, 189, 67, 130, 160, 190, 249, 111, 121, 62, 33, 234, 98, 60, 201, 66, 37, 189, 187, 77, 192, 61, 114, 66, 119, 62, 150, 239, 150, 62, 243, 5, 157, 190, 207, 73, 37, 62, 106, 121, 171, 190, 187, 172, 195, 61, 105, 171, 5, 190, 26, 174, 185, 189, 240, 165, 250, 61, 139, 195, 95, 62, 151, 73, 8, 190, 167, 199, 128, 62, 174, 48, 131, 190, 175, 129, 109, 62, 156, 73, 80, 190, 187, 119, 117, 190, 132, 136, 202, 189, 162, 24, 140, 190, 73, 7, 6, 61, 31, 83, 88, 190, 176, 123, 79, 62, 32, 145, 49, 62, 67, 146, 76, 190, 237, 236, 197, 62, 39, 62, 166, 189, 151, 223, 154, 189, 129, 144, 142, 190, 135, 228, 141, 61, 249, 49, 141, 189, 161, 10, 130, 191, 3, 148, 45, 189, 7, 255, 40, 191, 135, 43, 206, 190, 102, 3, 17, 190, 193, 107, 86, 189, 70, 152, 137, 63, 73, 219, 154, 62, 210, 229, 95, 188, 7, 1, 136, 190, 66, 63, 69, 63, 10, 45, 57, 190, 169, 53, 205, 62, 248, 152, 198, 190, 84, 110, 135, 62, 59, 16, 109, 61, 41, 110, 176, 190, 244, 6, 7, 63, 160, 73, 243, 62, 56, 79, 4, 191, 112, 21, 208, 190, 250, 237, 62, 63, 11, 168, 137, 187, 247, 225, 122, 191, 80, 77, 214, 61, 40, 66, 11, 62, 147, 48, 225, 189, 10, 60, 14, 191, 44, 83, 242, 190, 131, 231, 90, 191, 215, 133, 215, 190, 193, 22, 18, 62, 126, 210, 68, 190, 101, 80, 145, 62, 82, 35, 3, 63, 7, 9, 108, 60, 137, 75, 210, 189, 114, 186, 41, 191, 149, 69, 5, 63, 80, 52, 147, 190, 149, 146, 47, 63, 140, 221, 40, 191, 200, 64, 250, 190, 152, 31, 99, 63, 232, 211, 39, 63, 152, 203, 123, 190, 94, 179, 252, 62, 224, 207, 5, 190, 89, 226, 115, 62, 214, 221, 204, 189, 123, 117, 41, 191, 234, 6, 251, 190, 202, 239, 178, 190, 77, 59, 175, 62, 165, 141, 180, 61, 79, 60, 60, 62, 46, 39, 106, 63, 129, 141, 61, 191, 198, 182, 42, 63, 190, 189, 33, 191, 28, 211, 207, 190, 243, 216, 232, 189, 57, 163, 33, 189, 147, 112, 254, 61, 226, 123, 142, 190, 198, 58, 143, 62, 242, 116, 169, 62, 226, 209, 94, 190, 68, 114, 37, 62, 63, 20, 209, 61, 16, 251, 218, 62, 199, 94, 121, 189, 53, 28, 130, 61, 230, 164, 118, 62, 23, 99, 52, 190, 88, 197, 52, 62, 236, 189, 7, 62, 37, 221, 158, 190, 213, 78, 225, 189, 145, 228, 92, 190, 30, 116, 34, 187, 145, 194, 169, 61, 241, 18, 149, 62, 68, 184, 137, 62, 87, 52, 169, 190, 244, 106, 226, 189, 64, 93, 214, 190, 80, 223, 144, 190, 27, 168, 103, 190, 107, 241, 22, 62, 149, 67, 66, 190, 123, 161, 19, 191, 133, 176, 147, 190, 130, 172, 230, 190, 224, 123, 7, 190, 36, 144, 195, 189, 199, 65, 179, 190, 186, 92, 120, 60, 29, 195, 114, 189, 96, 67, 162, 190, 103, 12, 133, 62, 198, 25, 231, 60, 152, 186, 13, 190, 82, 3, 159, 190, 64, 141, 50, 62, 200, 160, 54, 190, 251, 6, 247, 188, 73, 177, 139, 190, 61, 189, 164, 61, 96, 135, 84, 189, 212, 75, 88, 62, 61, 129, 77, 62, 236, 215, 146, 62, 156, 238, 155, 61, 171, 234, 203, 190, 247, 53, 155, 190, 84, 234, 118, 190, 187, 77, 133, 189, 214, 229, 135, 61, 45, 104, 193, 190, 30, 35, 161, 62, 11, 30, 100, 190, 206, 73, 218, 188, 228, 234, 5, 62, 130, 165, 157, 189, 67, 234, 208, 62, 204, 92, 75, 62, 46, 227, 234, 62, 85, 180, 39, 189, 86, 165, 130, 62, 48, 134, 239, 189, 128, 149, 155, 61, 147, 245, 123, 62, 181, 160, 28, 189, 202, 210, 128, 62, 221, 187, 110, 61, 2, 119, 211, 62, 50, 145, 45, 62, 118, 190, 192, 190, 57, 128, 150, 62, 160, 37, 239, 189, 130, 217, 39, 188, 121, 155, 165, 60, 161, 249, 129, 190, 74, 88, 55, 62, 223, 146, 183, 62, 195, 222, 199, 190, 43, 68, 168, 189, 50, 21, 80, 189, 149, 36, 89, 191, 183, 10, 146, 189, 151, 244, 23, 61, 97, 203, 43, 62, 176, 180, 162, 190, 130, 31, 226, 190, 19, 199, 168, 61, 183, 205, 103, 190, 98, 4, 1, 61, 174, 22, 173, 61, 86, 32, 137, 190, 145, 139, 71, 190, 159, 90, 180, 189, 69, 211, 0, 62, 37, 246, 223, 190, 12, 227, 4, 189, 173, 132, 111, 63, 171, 102, 237, 61, 96, 78, 59, 62, 94, 29, 201, 190, 116, 83, 84, 62, 96, 186, 83, 190, 5, 52, 1, 191, 249, 170, 218, 189, 194, 124, 0, 63, 167, 84, 253, 190, 162, 190, 172, 61, 32, 234, 255, 60, 69, 3, 79, 187, 140, 93, 63, 190, 238, 103, 24, 63, 23, 15, 207, 61, 101, 148, 19, 191, 43, 1, 182, 62, 117, 113, 170, 190, 141, 106, 46, 60, 174, 195, 199, 60, 239, 72, 41, 191, 171, 42, 193, 61, 147, 43, 149, 60, 199, 109, 195, 62, 148, 149, 209, 188, 174, 174, 119, 189, 87, 117, 193, 190, 164, 67, 79, 63, 204, 108, 145, 62, 181, 57, 59, 190, 231, 46, 136, 62, 74, 21, 28, 62, 123, 251, 31, 63, 156, 127, 17, 62, 242, 37, 240, 62, 203, 50, 146, 61, 125, 158, 2, 190, 215, 185, 118, 62, 91, 36, 158, 189, 205, 223, 186, 189, 36, 208, 199, 189, 67, 7, 41, 190, 200, 248, 242, 189, 19, 17, 78, 62, 158, 179, 11, 62, 196, 85, 53, 62, 184, 70, 28, 62, 113, 44, 130, 62, 162, 128, 238, 189, 151, 65, 85, 189, 144, 20, 117, 190, 87, 30, 195, 190, 11, 43, 161, 60, 191, 180, 250, 62, 99, 123, 200, 62, 41, 96, 35, 191, 75, 208, 22, 62, 231, 128, 44, 190, 84, 28, 110, 190, 217, 49, 19, 63, 98, 30, 43, 62, 58, 19, 173, 190, 174, 8, 157, 190, 129, 203, 137, 190, 130, 142, 37, 190, 95, 198, 157, 188, 170, 238, 127, 190, 121, 101, 132, 190, 95, 200, 230, 189, 164, 153, 39, 188, 234, 155, 239, 61, 182, 195, 143, 62, 85, 249, 3, 188, 50, 192, 2, 62, 178, 255, 47, 190, 148, 81, 154, 62, 135, 81, 252, 62, 133, 176, 171, 189, 209, 51, 222, 188, 18, 1, 10, 190, 225, 152, 214, 62, 167, 110, 4, 191, 37, 220, 26, 63, 164, 236, 137, 190, 140, 41, 151, 190, 75, 49, 222, 188, 9, 19, 37, 188, 191, 166, 201, 62, 111, 45, 251, 62, 27, 143, 85, 62, 176, 84, 117, 189, 254, 220, 163, 189, 223, 218, 217, 61, 128, 221, 163, 190, 35, 34, 33, 62, 105, 85, 103, 61, 28, 95, 71, 190, 38, 122, 184, 190, 166, 159, 120, 62, 210, 85, 168, 61, 71, 9, 235, 61, 89, 145, 128, 62, 85, 136, 146, 190, 222, 128, 165, 61, 136, 182, 15, 62, 47, 100, 55, 190, 81, 242, 174, 189, 19, 169, 53, 62, 212, 108, 230, 190, 105, 133, 130, 62, 106, 118, 0, 189, 79, 34, 176, 188, 117, 45, 63, 62, 65, 22, 0, 61, 93, 209, 131, 190, 254, 84, 166, 190, 154, 169, 200, 190, 125, 213, 1, 62, 57, 162, 179, 188, 255, 137, 169, 61, 107, 134, 132, 62, 88, 47, 74, 190, 214, 128, 117, 62, 6, 168, 151, 61, 46, 143, 147, 190, 208, 168, 82, 62, 53, 246, 234, 189, 57, 203, 49, 60, 58, 232, 229, 189, 116, 29, 219, 62, 14, 46, 129, 62, 40, 150, 97, 62, 73, 184, 133, 62, 42, 229, 32, 61, 98, 132, 241, 189, 20, 62, 28, 62, 5, 219, 225, 190, 186, 34, 125, 62, 11, 78, 20, 190, 58, 43, 22, 62, 72, 243, 153, 60, 95, 101, 144, 62, 185, 153, 27, 62, 149, 70, 169, 189, 147, 166, 212, 62, 224, 61, 180, 62, 142, 167, 234, 61, 228, 145, 135, 62, 80, 225, 148, 189, 189, 88, 153, 188, 89, 247, 96, 61, 175, 251, 102, 190, 174, 212, 182, 190, 176, 202, 25, 60, 129, 83, 83, 189, 56, 156, 9, 62, 20, 183, 64, 60, 202, 133, 57, 190, 57, 90, 112, 189, 163, 171, 52, 61, 136, 139, 122, 62, 33, 246, 240, 189, 170, 72, 62, 63, 214, 186, 229, 189, 255, 243, 125, 189, 16, 139, 55, 61, 229, 183, 137, 190, 184, 98, 135, 61, 123, 62, 129, 61, 167, 16, 198, 60, 96, 151, 111, 61, 134, 14, 139, 62, 98, 31, 48, 190, 176, 203, 66, 189, 95, 12, 51, 62, 2, 131, 70, 190, 210, 139, 128, 62, 66, 76, 186, 188, 109, 183, 56, 62, 249, 108, 21, 191, 130, 10, 147, 189, 139, 100, 180, 62, 109, 84, 3, 63, 158, 111, 1, 188, 208, 136, 173, 62, 106, 6, 11, 190, 194, 255, 215, 189, 52, 76, 114, 62, 151, 218, 21, 62, 26, 17, 161, 190, 89, 220, 167, 190, 152, 95, 103, 62, 114, 224, 174, 61, 117, 38, 98, 62, 213, 99, 154, 189, 138, 32, 177, 188, 96, 180, 163, 61, 130, 246, 130, 190, 139, 240, 20, 190, 228, 211, 247, 62, 111, 15, 156, 189, 192, 237, 241, 61, 228, 28, 41, 60, 4, 248, 59, 189, 0, 115, 65, 63, 96, 71, 231, 62, 175, 12, 154, 62, 181, 89, 159, 190, 78, 79, 90, 63, 3, 62, 132, 190, 254, 197, 137, 62, 175, 6, 14, 61, 218, 40, 216, 189, 220, 42, 131, 62, 44, 36, 22, 62, 204, 143, 130, 62, 184, 52, 87, 188, 158, 175, 125, 61, 26, 255, 156, 61, 50, 79, 16, 190, 37, 35, 158, 60, 5, 222, 138, 189, 229, 249, 109, 60, 65, 219, 15, 190, 33, 206, 59, 188, 59, 127, 198, 189, 117, 164, 240, 189, 216, 111, 217, 61, 52, 47, 5, 190, 197, 149, 230, 59, 202, 183, 167, 190, 138, 140, 166, 62, 5, 148, 134, 187, 49, 207, 7, 61, 96, 182, 141, 61, 113, 152, 74, 62, 183, 166, 17, 190, 16, 1, 39, 61, 224, 99, 57, 62, 52, 220, 50, 190, 114, 52, 140, 62, 145, 65, 7, 62, 62, 97, 243, 58, 149, 242, 253, 61, 27, 80, 154, 189, 54, 10, 6, 62, 88, 37, 60, 62, 120, 65, 63, 62, 10, 12, 128, 62, 184, 184, 165, 188, 100, 164, 50, 188, 138, 187, 34, 188, 252, 149, 247, 60, 167, 149, 164, 59, 30, 240, 243, 189, 85, 179, 211, 61, 8, 135, 17, 61, 254, 79, 141, 62, 178, 244, 14, 189, 164, 24, 59, 62, 202, 19, 229, 61, 184, 187, 141, 190, 48, 143, 99, 190, 209, 234, 96, 62, 55, 165, 188, 190, 179, 247, 74, 189, 35, 24, 111, 189, 33, 245, 41, 57, 140, 149, 54, 62, 188, 204, 190, 62, 122, 215, 144, 62, 16, 137, 222, 190, 14, 1, 169, 189, 94, 61, 35, 60, 95, 173, 50, 188, 142, 181, 146, 61, 69, 212, 60, 190, 70, 160, 146, 62, 55, 255, 111, 62, 153, 75, 45, 61, 134, 170, 124, 188, 249, 164, 101, 190, 156, 167, 207, 189, 226, 186, 216, 62, 157, 241, 204, 190, 11, 167, 206, 62, 58, 7, 237, 190, 86, 196, 125, 190, 185, 3, 243, 61, 7, 68, 23, 63, 178, 230, 228, 62, 70, 236, 36, 191, 74, 83, 24, 62, 205, 78, 222, 190, 23, 59, 154, 62, 192, 101, 60, 190, 103, 45, 58, 190, 118, 99, 142, 62, 78, 77, 195, 189, 17, 45, 88, 62, 154, 33, 20, 189, 215, 248, 198, 190, 85, 144, 25, 62, 33, 160, 92, 61, 28, 141, 177, 188, 59, 64, 145, 187, 150, 147, 168, 62, 183, 97, 161, 190, 74, 73, 79, 62, 77, 24, 88, 62, 30, 63, 81, 62, 52, 251, 104, 190, 66, 106, 197, 190, 138, 67, 22, 63, 220, 144, 51, 190, 96, 73, 140, 190, 70, 12, 51, 62, 197, 136, 28, 189, 176, 236, 6, 63, 81, 0, 214, 190, 109, 26, 139, 62, 224, 123, 55, 190, 211, 217, 236, 190, 149, 47, 255, 60, 185, 48, 154, 190, 24, 83, 219, 61, 241, 100, 221, 62, 243, 70, 170, 62, 189, 151, 238, 189, 77, 72, 30, 191, 177, 64, 31, 62, 180, 13, 15, 191, 178, 132, 37, 62, 23, 129, 130, 62, 115, 25, 154, 190, 46, 220, 129, 190, 18, 27, 121, 62, 177, 187, 229, 61, 220, 90, 121, 62, 131, 12, 34, 190, 188, 179, 195, 60, 228, 175, 65, 61, 209, 23, 122, 190, 22, 16, 161, 61, 184, 127, 222, 62, 251, 187, 32, 62, 108, 255, 40, 190, 118, 2, 174, 62, 222, 210, 151, 189, 195, 30, 247, 189, 118, 104, 235, 187, 217, 163, 246, 59, 193, 117, 128, 62, 177, 175, 169, 61, 231, 137, 243, 62, 55, 114, 95, 62, 219, 227, 96, 190, 152, 241, 219, 61, 96, 237, 205, 61, 246, 95, 107, 189, 140, 202, 159, 189, 237, 25, 245, 189, 14, 216, 6, 62, 41, 143, 238, 62, 140, 36, 28, 62, 203, 105, 243, 189, 2, 221, 145, 61, 18, 253, 3, 188, 128, 218, 18, 190, 216, 142, 39, 189, 120, 48, 23, 62, 59, 50, 215, 190, 166, 39, 47, 62, 41, 223, 54, 62, 248, 208, 214, 60, 81, 169, 184, 190, 194, 42, 202, 188, 176, 150, 44, 190, 220, 49, 160, 188, 130, 72, 219, 61, 106, 120, 23, 62, 41, 150, 170, 190, 234, 123, 157, 190, 101, 14, 239, 61, 68, 151, 86, 189, 195, 173, 23, 190, 255, 235, 112, 60, 186, 85, 0, 190, 228, 185, 41, 190, 80, 203, 235, 61, 150, 211, 187, 60, 123, 76, 142, 62, 155, 150, 62, 61, 26, 231, 89, 62, 87, 123, 153, 189, 228, 196, 187, 61, 54, 236, 93, 62, 167, 143, 33, 190, 71, 243, 228, 61, 44, 200, 201, 189, 198, 8, 231, 62, 165, 52, 227, 190, 108, 34, 91, 62, 103, 125, 178, 189, 114, 2, 169, 190, 144, 47, 125, 60, 187, 12, 82, 61, 103, 233, 190, 62, 210, 129, 156, 62, 6, 82, 30, 62, 80, 52, 134, 62, 91, 102, 142, 62, 160, 237, 15, 62, 238, 118, 210, 61, 240, 69, 51, 62, 44, 213, 47, 187, 208, 235, 26, 190, 78, 70, 131, 60, 251, 11, 95, 190, 131, 41, 187, 61, 151, 35, 69, 190, 34, 189, 127, 62, 140, 249, 155, 189, 65, 184, 6, 190, 248, 188, 151, 61, 245, 17, 14, 190, 170, 200, 16, 62, 244, 63, 8, 63, 140, 2, 203, 189, 181, 131, 155, 189, 245, 45, 135, 190, 111, 154, 15, 62, 222, 183, 145, 189, 2, 129, 174, 189, 8, 66, 35, 61, 186, 128, 146, 61, 217, 73, 162, 190, 27, 99, 30, 62, 48, 209, 92, 190, 243, 205, 150, 62, 13, 77, 186, 187, 238, 166, 59, 190, 65, 189, 217, 189, 98, 176, 144, 188, 1, 154, 69, 62, 52, 230, 199, 190, 169, 13, 109, 189, 122, 156, 229, 189, 32, 119, 139, 61, 142, 135, 51, 61, 75, 106, 195, 190, 83, 176, 73, 60, 164, 76, 219, 189, 155, 143, 18, 62, 128, 155, 21, 61, 110, 212, 118, 190, 107, 194, 86, 190, 97, 162, 150, 62, 103, 54, 181, 61, 236, 136, 0, 62, 52, 192, 116, 189, 99, 90, 110, 190, 25, 247, 170, 61, 133, 31, 207, 189, 193, 51, 247, 188, 202, 87, 247, 190, 203, 121, 200, 190, 247, 97, 101, 189, 230, 113, 16, 190, 93, 200, 206, 61, 120, 220, 146, 189, 46, 164, 244, 62, 3, 80, 3, 63, 168, 217, 193, 190, 93, 42, 134, 191, 127, 162, 225, 187, 244, 44, 70, 191, 230, 129, 47, 191, 116, 45, 175, 190, 221, 191, 165, 60, 253, 233, 64, 63, 94, 181, 42, 62, 134, 89, 108, 60, 116, 63, 235, 190, 64, 183, 51, 63, 214, 129, 125, 190, 157, 103, 54, 63, 79, 220, 38, 191, 38, 211, 154, 61, 27, 157, 161, 62, 166, 92, 57, 190, 95, 190, 212, 62, 168, 151, 138, 62, 247, 111, 49, 191, 223, 145, 236, 190, 190, 224, 195, 62, 190, 157, 83, 190, 118, 58, 96, 191, 66, 162, 241, 61, 72, 29, 144, 62, 20, 99, 4, 61, 179, 174, 58, 61, 145, 119, 28, 189, 56, 173, 129, 191, 68, 14, 57, 191, 29, 239, 169, 62, 69, 140, 1, 191, 57, 32, 167, 62, 240, 28, 57, 63, 90, 101, 179, 62, 203, 122, 21, 61, 100, 255, 148, 190, 222, 222, 238, 62, 187, 231, 70, 191, 147, 67, 213, 62, 151, 230, 89, 191, 132, 226, 21, 191, 8, 88, 128, 62, 51, 116, 76, 63, 104, 44, 211, 187, 139, 72, 30, 63, 15, 232, 133, 190, 215, 220, 183, 62, 177, 41, 162, 190, 153, 100, 210, 59, 201, 11, 26, 191, 122, 204, 62, 191, 117, 179, 36, 63, 128, 226, 217, 61, 28, 230, 151, 62, 92, 250, 136, 63, 223, 105, 78, 191, 150, 164, 226, 62, 230, 203, 122, 191, 69, 25, 65, 191, 32, 5, 133, 190, 242, 16, 184, 62, 27, 47, 26, 190, 233, 31, 237, 61, 220, 8, 205, 61, 90, 255, 106, 62, 151, 39, 48, 189, 157, 220, 90, 190, 246, 180, 110, 62, 225, 133, 195, 59, 162, 130, 78, 60, 63, 249, 242, 61, 213, 115, 82, 190, 84, 140, 175, 62, 92, 148, 81, 190, 136, 11, 200, 190, 153, 73, 120, 62, 206, 217, 12, 190, 224, 5, 33, 62, 22, 197, 210, 61, 52, 67, 200, 189, 223, 60, 232, 188, 13, 188, 61, 62, 227, 104, 179, 62, 173, 135, 7, 190, 214, 94, 142, 62, 42, 233, 190, 61, 102, 5, 35, 190, 53, 243, 12, 189, 42, 10, 74, 62, 5, 31, 76, 62, 178, 4, 228, 61, 175, 42, 183, 60, 120, 131, 123, 62, 10, 57, 118, 62, 175, 86, 239, 61, 140, 251, 84, 62, 137, 135, 185, 189, 146, 123, 201, 60, 238, 88, 105, 62, 211, 233, 163, 190, 104, 241, 42, 62, 51, 39, 0, 63, 87, 16, 83, 61, 138, 205, 213, 62, 14, 141, 116, 62, 71, 32, 12, 62, 248, 40, 5, 191, 39, 180, 133, 62, 253, 8, 231, 190, 69, 173, 199, 189, 0, 226, 142, 189, 145, 197, 95, 190, 233, 126, 32, 62, 21, 58, 234, 62, 217, 234, 155, 62, 2, 144, 231, 190, 171, 216, 2, 62, 61, 225, 204, 61, 130, 184, 16, 62, 30, 110, 162, 62, 102, 5, 192, 62, 187, 196, 147, 62, 140, 105, 29, 62, 18, 218, 233, 189, 249, 49, 168, 190, 207, 117, 16, 189, 186, 117, 209, 189, 73, 71, 160, 62, 217, 39, 228, 60, 218, 110, 123, 61, 134, 96, 15, 189, 50, 39, 118, 190, 223, 38, 31, 62, 232, 32, 48, 189, 216, 25, 51, 63, 211, 49, 128, 190, 67, 134, 152, 189, 177, 29, 76, 189, 94, 93, 63, 190, 193, 90, 75, 61, 4, 5, 199, 189, 136, 153, 251, 61, 187, 225, 244, 188, 121, 35, 112, 62, 61, 94, 27, 61, 188, 197, 169, 61, 164, 15, 38, 62, 249, 153, 5, 190, 49, 29, 70, 62, 141, 124, 140, 60, 185, 51, 12, 61, 230, 229, 59, 191, 80, 54, 119, 189, 56, 191, 144, 60, 33, 85, 165, 62, 49, 11, 56, 190, 241, 157, 24, 61, 247, 48, 46, 190, 122, 98, 215, 189, 164, 200, 250, 60, 240, 210, 175, 61, 165, 185, 31, 190, 244, 192, 221, 190, 54, 217, 108, 62, 51, 128, 21, 62, 177, 148, 85, 62, 170, 177, 255, 187, 105, 188, 108, 61, 112, 37, 247, 61, 176, 220, 58, 189, 71, 93, 61, 188, 213, 246, 207, 62, 218, 240, 4, 189, 99, 145, 104, 189, 198, 241, 188, 188, 61, 56, 188, 188, 135, 243, 215, 62, 26, 0, 211, 62, 215, 26, 5, 62, 213, 219, 207, 190, 110, 120, 93, 63, 41, 80, 143, 188, 240, 52, 120, 62, 215, 26, 35, 189, 40, 190, 88, 189, 100, 178, 20, 62, 176, 203, 222, 61, 133, 167, 8, 62, 164, 164, 6, 190, 42, 163, 246, 60, 44, 232, 186, 190, 163, 66, 162, 188, 151, 68, 160, 61, 122, 80, 16, 189, 93, 49, 106, 189, 88, 184, 181, 189, 126, 126, 154, 61, 235, 24, 187, 61, 99, 64, 234, 62, 219, 6, 106, 190, 79, 101, 34, 189, 153, 134, 8, 190, 240, 110, 199, 188, 41, 102, 76, 190, 240, 222, 199, 189, 110, 11, 196, 187, 70, 136, 210, 189, 17, 99, 165, 190, 17, 70, 232, 189, 246, 6, 240, 61, 124, 80, 149, 190, 77, 165, 70, 189, 95, 70, 210, 190, 244, 96, 107, 190, 91, 174, 51, 189, 216, 201, 248, 190, 127, 245, 200, 59, 155, 122, 44, 191, 112, 197, 19, 191, 128, 208, 53, 190, 42, 125, 57, 189, 204, 77, 4, 62, 223, 241, 15, 190, 80, 25, 178, 188, 123, 53, 3, 62, 38, 83, 218, 60, 163, 54, 107, 62, 115, 219, 142, 189, 97, 12, 57, 62, 109, 126, 142, 190, 59, 34, 102, 62, 231, 25, 247, 186, 51, 207, 184, 58, 28, 214, 180, 189, 71, 137, 126, 61, 55, 125, 23, 62, 6, 252, 106, 62, 233, 0, 107, 190, 71, 85, 91, 62, 52, 28, 248, 188, 65, 203, 67, 191, 17, 86, 175, 61, 219, 150, 254, 189, 22, 180, 12, 190, 224, 42, 62, 63, 175, 26, 182, 61, 114, 108, 190, 62, 147, 61, 185, 189, 6, 53, 250, 187, 216, 25, 12, 62, 86, 114, 78, 189, 199, 131, 42, 190, 142, 74, 3, 62, 33, 139, 174, 189, 126, 83, 212, 190, 213, 18, 184, 61, 182, 154, 42, 62, 39, 248, 32, 190, 114, 103, 11, 61, 196, 229, 223, 189, 62, 140, 147, 62, 213, 12, 7, 62, 53, 187, 38, 63, 111, 68, 162, 189, 99, 13, 177, 61, 88, 228, 214, 189, 111, 196, 43, 190, 34, 228, 12, 188, 41, 151, 4, 190, 227, 126, 20, 62, 94, 185, 126, 189, 147, 128, 208, 190, 13, 111, 58, 189, 85, 159, 90, 62, 164, 101, 13, 190, 240, 5, 24, 190, 138, 231, 42, 190, 61, 230, 131, 61, 70, 227, 91, 190, 133, 102, 235, 190, 26, 4, 110, 189, 71, 46, 170, 190, 247, 12, 90, 188, 249, 85, 149, 190, 173, 83, 124, 61, 69, 186, 101, 62, 198, 19, 164, 189, 113, 76, 163, 61, 65, 74, 87, 189, 190, 19, 119, 62, 133, 46, 144, 62, 93, 218, 77, 190, 180, 27, 182, 61, 165, 69, 136, 61, 25, 175, 207, 60, 27, 50, 14, 62, 178, 242, 14, 62, 181, 173, 93, 190, 231, 45, 4, 189, 229, 169, 230, 62, 56, 64, 51, 190, 151, 181, 207, 189, 242, 153, 184, 61, 118, 208, 63, 190, 140, 22, 139, 190, 131, 15, 170, 62, 139, 65, 134, 60, 151, 128, 97, 190, 111, 199, 46, 63, 244, 246, 73, 62, 17, 153, 36, 63, 220, 29, 158, 61, 200, 184, 83, 62, 154, 164, 135, 62, 93, 15, 8, 61, 243, 9, 254, 189, 51, 216, 123, 189, 42, 177, 6, 62, 52, 8, 133, 61, 26, 5, 247, 61, 230, 18, 183, 61,